const unsigned char ppg_hr_mlp_int8_tflite[] = {
  0x20, 0x00, 0x00, 0x00, 0x54, 0x46, 0x4c, 0x33, 0x00, 0x00, 0x00, 0x00,
  0x14, 0x00, 0x20, 0x00, 0x1c, 0x00, 0x18, 0x00, 0x14, 0x00, 0x10, 0x00,
  0x0c, 0x00, 0x00, 0x00, 0x08, 0x00, 0x04, 0x00, 0x14, 0x00, 0x00, 0x00,
  0x1c, 0x00, 0x00, 0x00, 0x98, 0x00, 0x00, 0x00, 0xf0, 0x00, 0x00, 0x00,
  0xb4, 0x0f, 0x00, 0x00, 0xc4, 0x0f, 0x00, 0x00, 0xcc, 0x1e, 0x00, 0x00,
  0x03, 0x00, 0x00, 0x00, 0x01, 0x00, 0x00, 0x00, 0x10, 0x00, 0x00, 0x00,
  0x00, 0x00, 0x0a, 0x00, 0x10, 0x00, 0x0c, 0x00, 0x08, 0x00, 0x04, 0x00,
  0x0a, 0x00, 0x00, 0x00, 0x0c, 0x00, 0x00, 0x00, 0x1c, 0x00, 0x00, 0x00,
  0x3c, 0x00, 0x00, 0x00, 0x0f, 0x00, 0x00, 0x00, 0x73, 0x65, 0x72, 0x76,
  0x69, 0x6e, 0x67, 0x5f, 0x64, 0x65, 0x66, 0x61, 0x75, 0x6c, 0x74, 0x00,
  0x01, 0x00, 0x00, 0x00, 0x04, 0x00, 0x00, 0x00, 0x90, 0xff, 0xff, 0xff,
  0x09, 0x00, 0x00, 0x00, 0x04, 0x00, 0x00, 0x00, 0x08, 0x00, 0x00, 0x00,
  0x6f, 0x75, 0x74, 0x70, 0x75, 0x74, 0x5f, 0x30, 0x00, 0x00, 0x00, 0x00,
  0x01, 0x00, 0x00, 0x00, 0x04, 0x00, 0x00, 0x00, 0xde, 0xf0, 0xff, 0xff,
  0x04, 0x00, 0x00, 0x00, 0x0c, 0x00, 0x00, 0x00, 0x70, 0x70, 0x67, 0x5f,
  0x66, 0x65, 0x61, 0x74, 0x75, 0x72, 0x65, 0x73, 0x00, 0x00, 0x00, 0x00,
  0x02, 0x00, 0x00, 0x00, 0x34, 0x00, 0x00, 0x00, 0x04, 0x00, 0x00, 0x00,
  0xdc, 0xff, 0xff, 0xff, 0x0c, 0x00, 0x00, 0x00, 0x04, 0x00, 0x00, 0x00,
  0x13, 0x00, 0x00, 0x00, 0x43, 0x4f, 0x4e, 0x56, 0x45, 0x52, 0x53, 0x49,
  0x4f, 0x4e, 0x5f, 0x4d, 0x45, 0x54, 0x41, 0x44, 0x41, 0x54, 0x41, 0x00,
  0x08, 0x00, 0x0c, 0x00, 0x08, 0x00, 0x04, 0x00, 0x08, 0x00, 0x00, 0x00,
  0x0b, 0x00, 0x00, 0x00, 0x04, 0x00, 0x00, 0x00, 0x13, 0x00, 0x00, 0x00,
  0x6d, 0x69, 0x6e, 0x5f, 0x72, 0x75, 0x6e, 0x74, 0x69, 0x6d, 0x65, 0x5f,
  0x76, 0x65, 0x72, 0x73, 0x69, 0x6f, 0x6e, 0x00, 0x0d, 0x00, 0x00, 0x00,
  0xc0, 0x0e, 0x00, 0x00, 0xb8, 0x0e, 0x00, 0x00, 0xa4, 0x0e, 0x00, 0x00,
  0x6c, 0x0e, 0x00, 0x00, 0xdc, 0x0d, 0x00, 0x00, 0xcc, 0x05, 0x00, 0x00,
  0xbc, 0x04, 0x00, 0x00, 0xac, 0x00, 0x00, 0x00, 0xa4, 0x00, 0x00, 0x00,
  0x9c, 0x00, 0x00, 0x00, 0x94, 0x00, 0x00, 0x00, 0x74, 0x00, 0x00, 0x00,
  0x04, 0x00, 0x00, 0x00, 0x8e, 0xf1, 0xff, 0xff, 0x04, 0x00, 0x00, 0x00,
  0x60, 0x00, 0x00, 0x00, 0x0c, 0x00, 0x00, 0x00, 0x08, 0x00, 0x0e, 0x00,
  0x08, 0x00, 0x04, 0x00, 0x08, 0x00, 0x00, 0x00, 0x10, 0x00, 0x00, 0x00,
  0x28, 0x00, 0x00, 0x00, 0x00, 0x00, 0x06, 0x00, 0x08, 0x00, 0x04, 0x00,
  0x06, 0x00, 0x00, 0x00, 0x04, 0x00, 0x00, 0x00, 0x01, 0x00, 0x00, 0x00,
  0xeb, 0x03, 0x00, 0x00, 0x0c, 0x00, 0x18, 0x00, 0x14, 0x00, 0x10, 0x00,
  0x0c, 0x00, 0x04, 0x00, 0x0c, 0x00, 0x00, 0x00, 0x75, 0xee, 0x75, 0x5e,
  0x3f, 0x13, 0xcc, 0x6d, 0x02, 0x00, 0x00, 0x00, 0x02, 0x00, 0x00, 0x00,
  0x04, 0x00, 0x00, 0x00, 0x06, 0x00, 0x00, 0x00, 0x32, 0x2e, 0x32, 0x30,
  0x2e, 0x30, 0x00, 0x00, 0xfa, 0xf1, 0xff, 0xff, 0x04, 0x00, 0x00, 0x00,
  0x10, 0x00, 0x00, 0x00, 0x31, 0x2e, 0x31, 0x34, 0x2e, 0x30, 0x00, 0x00,
  0x00, 0x00, 0x00, 0x00, 0x00, 0x00, 0x00, 0x00, 0x84, 0xf1, 0xff, 0xff,
  0x88, 0xf1, 0xff, 0xff, 0x8c, 0xf1, 0xff, 0xff, 0x22, 0xf2, 0xff, 0xff,
  0x04, 0x00, 0x00, 0x00, 0x00, 0x04, 0x00, 0x00, 0x7f, 0xf6, 0x2b, 0x07,
  0x13, 0x2c, 0xee, 0x24, 0xda, 0xc5, 0x4b, 0x22, 0x48, 0x1d, 0xce, 0xdf,
  0x11, 0x03, 0x4f, 0xba, 0x9c, 0x6b, 0xe8, 0x3c, 0xc7, 0x81, 0xce, 0x0a,
  0xe6, 0x08, 0xd1, 0xe9, 0x03, 0xe7, 0x2f, 0xb7, 0xd2, 0x60, 0xd9, 0x2f,
  0x17, 0xe1, 0xcc, 0x02, 0x81, 0x0b, 0xfb, 0xfd, 0x4b, 0x24, 0xde, 0x0a,
  0x38, 0x81, 0x03, 0x19, 0xd2, 0x2f, 0x21, 0xdf, 0xa8, 0x4f, 0x3d, 0xeb,
  0x0c, 0xfd, 0xe3, 0x17, 0x67, 0x81, 0x35, 0xfb, 0x4b, 0x14, 0x58, 0x3f,
  0xb7, 0x03, 0x3e, 0xd4, 0xda, 0x12, 0xeb, 0x1b, 0x06, 0x81, 0xe6, 0x04,
  0x1a, 0xfa, 0x22, 0xe6, 0x32, 0xec, 0xf4, 0xd2, 0x12, 0xd7, 0xaa, 0x3a,
  0x28, 0xe7, 0xd4, 0xc1, 0x9d, 0x7f, 0xf2, 0xf4, 0x4c, 0x2d, 0x1d, 0x06,
  0x22, 0x1e, 0x3c, 0x0b, 0xe9, 0x04, 0xe2, 0xe4, 0x22, 0x81, 0xf6, 0xf6,
  0xfe, 0xc2, 0xe5, 0x0d, 0xb7, 0x81, 0x98, 0x94, 0xff, 0x7b, 0x1f, 0x43,
  0xe8, 0x8d, 0x74, 0x5e, 0x0c, 0xf9, 0x34, 0x18, 0x44, 0x4e, 0xf3, 0x4d,
  0x75, 0x10, 0x1e, 0xe4, 0xca, 0xde, 0xed, 0x7f, 0xa4, 0x8e, 0xaf, 0x38,
  0xed, 0xc3, 0xfa, 0xcd, 0x0e, 0x49, 0x5b, 0xc6, 0x7f, 0xe4, 0x15, 0x97,
  0x08, 0xe8, 0xd9, 0xe8, 0x10, 0x43, 0xbd, 0x3d, 0xf5, 0xaf, 0xf9, 0x1e,
  0x51, 0x26, 0x47, 0xf6, 0x81, 0x0b, 0xac, 0x19, 0xc7, 0x2c, 0xa8, 0xb2,
  0x01, 0x4b, 0x58, 0xbc, 0x7f, 0xce, 0x50, 0xd3, 0x19, 0x16, 0xf3, 0xfa,
  0x0a, 0xfe, 0x2b, 0x1e, 0x19, 0x14, 0x05, 0x0d, 0x03, 0x16, 0xee, 0x3b,
  0x23, 0x7f, 0x2b, 0x16, 0xb4, 0xe8, 0xd9, 0xeb, 0x7f, 0x11, 0x12, 0xeb,
  0x07, 0x0f, 0xfb, 0x62, 0x00, 0xc3, 0xf7, 0x39, 0xcf, 0x48, 0x0e, 0x50,
  0x03, 0x5d, 0x31, 0x1c, 0xce, 0xe8, 0x06, 0x81, 0x55, 0xfc, 0x2a, 0x81,
  0xe4, 0x0e, 0x4c, 0xc5, 0xf9, 0x4a, 0xfb, 0x1f, 0xbc, 0x45, 0x36, 0x81,
  0x11, 0x39, 0x3e, 0xfb, 0xf5, 0xb8, 0xf5, 0x20, 0xcb, 0xa3, 0xce, 0xfd,
  0x7f, 0x2d, 0x6b, 0x27, 0x36, 0x63, 0x5a, 0x0c, 0x24, 0xa3, 0xf8, 0x8c,
  0x0a, 0x9f, 0x18, 0x52, 0x81, 0x56, 0x7a, 0x19, 0x51, 0x65, 0x2b, 0x4b,
  0xfd, 0x1a, 0xd8, 0xe4, 0xc6, 0x48, 0xf3, 0x0c, 0x10, 0xf8, 0x23, 0x20,
  0x7f, 0x11, 0x10, 0x02, 0x24, 0xe3, 0x14, 0xeb, 0x5f, 0x81, 0xe8, 0xc1,
  0x5b, 0x0d, 0x61, 0x6f, 0xbd, 0x09, 0x4a, 0x1b, 0xdb, 0x20, 0xeb, 0xe1,
  0x1c, 0x81, 0x00, 0x00, 0xdb, 0x26, 0x24, 0x07, 0xaa, 0x42, 0x09, 0xf5,
  0x36, 0xd3, 0xf8, 0x06, 0x81, 0x76, 0xeb, 0x29, 0x30, 0xeb, 0x29, 0xd2,
  0x32, 0xb5, 0xb2, 0xf7, 0x07, 0xec, 0x2e, 0xcc, 0x0a, 0xf3, 0xe0, 0xc9,
  0x1d, 0x14, 0xfb, 0x0d, 0x5e, 0x1a, 0x7f, 0x00, 0x84, 0x8a, 0xfd, 0x81,
  0xf4, 0x2e, 0xde, 0xa5, 0xd9, 0x65, 0xee, 0x4f, 0x6d, 0x4b, 0x62, 0x41,
  0x0b, 0xf4, 0xbc, 0xc7, 0xf0, 0x2e, 0x0c, 0x06, 0x43, 0xea, 0x28, 0xee,
  0x81, 0x28, 0x15, 0xf1, 0x38, 0x05, 0xea, 0x05, 0xc2, 0x1f, 0xf2, 0xa5,
  0x2a, 0x1c, 0xfe, 0xd9, 0xb2, 0x08, 0xbc, 0x81, 0xcf, 0x4f, 0xa8, 0xdd,
  0x5b, 0x98, 0x91, 0xf5, 0xb7, 0x19, 0x7e, 0x81, 0xb5, 0xce, 0x5c, 0x1d,
  0x39, 0x05, 0xdc, 0x00, 0x11, 0x22, 0x0f, 0xe9, 0xef, 0xd4, 0xfd, 0x81,
  0x70, 0x46, 0xe6, 0x11, 0xeb, 0xeb, 0x42, 0xbd, 0xd0, 0x7f, 0x07, 0xdc,
  0x1c, 0x39, 0x00, 0xc3, 0x2a, 0xfe, 0x00, 0x00, 0x13, 0x0e, 0x3d, 0xed,
  0xe3, 0xf2, 0x07, 0x1c, 0xd4, 0x3b, 0xf7, 0x81, 0x21, 0x0a, 0xfc, 0xf8,
  0xcd, 0x50, 0xf4, 0xcb, 0x97, 0x15, 0xb5, 0xcf, 0xc0, 0x18, 0xa8, 0x87,
  0x7f, 0x70, 0x2c, 0x11, 0xb4, 0x01, 0x9a, 0x46, 0x4f, 0x08, 0x08, 0xc4,
  0x63, 0xf1, 0x81, 0xf9, 0xd6, 0x12, 0xc7, 0xdb, 0x8c, 0x12, 0xd8, 0x2c,
  0x25, 0x0c, 0xd7, 0x89, 0x33, 0x7c, 0x34, 0xda, 0x78, 0x7f, 0xa6, 0xfc,
  0x1e, 0xf8, 0xcd, 0x15, 0x48, 0xd4, 0xff, 0xd5, 0xc6, 0x81, 0xee, 0x1b,
  0xf6, 0x07, 0x1f, 0xe8, 0x2a, 0x1f, 0x2e, 0x25, 0xc8, 0x50, 0x5f, 0x0c,
  0x95, 0x17, 0x40, 0x33, 0x09, 0xf5, 0x81, 0x2c, 0xfa, 0xfd, 0x74, 0xf7,
  0x48, 0x81, 0xce, 0xe2, 0xba, 0xe0, 0x09, 0xeb, 0x1b, 0xf3, 0x56, 0xb2,
  0xd1, 0xeb, 0x5a, 0xaa, 0x7f, 0xfd, 0x2b, 0x13, 0xea, 0x6c, 0x4e, 0x04,
  0xba, 0x25, 0x42, 0x3b, 0x3d, 0xff, 0x0a, 0x35, 0x3e, 0x81, 0x2d, 0x30,
  0xd6, 0x53, 0xef, 0x2c, 0xdd, 0x31, 0xf1, 0xfc, 0xe7, 0xdb, 0x81, 0xe4,
  0x4c, 0xf6, 0xde, 0xef, 0xcd, 0x4c, 0xef, 0xc8, 0x0e, 0xfc, 0xdc, 0x25,
  0x39, 0xc4, 0x81, 0xdb, 0xd1, 0x68, 0xd6, 0x19, 0x04, 0xb7, 0xfb, 0x8d,
  0xe1, 0xd8, 0xc7, 0xf1, 0xce, 0xaf, 0xc5, 0x1e, 0xe5, 0xa0, 0x21, 0xf0,
  0x16, 0x03, 0x4e, 0xb9, 0x34, 0x7f, 0x1d, 0x04, 0x25, 0x07, 0x24, 0xca,
  0xa5, 0x79, 0x26, 0x0d, 0x81, 0xf3, 0x22, 0x03, 0xc3, 0xd3, 0xcb, 0xee,
  0xff, 0x24, 0x81, 0x04, 0x1b, 0xb5, 0x12, 0x05, 0x1c, 0xfe, 0x10, 0x14,
  0xd5, 0xd7, 0x32, 0x11, 0xfc, 0x3e, 0xd8, 0x3c, 0x3c, 0x09, 0xa5, 0x98,
  0xf9, 0x2d, 0xd0, 0x0e, 0x81, 0xd2, 0x18, 0x05, 0x46, 0x58, 0x81, 0xf0,
  0x15, 0x58, 0x11, 0xcc, 0x2a, 0xf5, 0x07, 0xc2, 0xe0, 0xfa, 0xa5, 0xe4,
  0x82, 0xaf, 0xeb, 0x81, 0xfa, 0x60, 0xa5, 0xa6, 0xa3, 0x5b, 0x32, 0x4f,
  0x44, 0x9e, 0xea, 0xf9, 0x18, 0xd5, 0x52, 0x19, 0xf8, 0x7c, 0x21, 0xbc,
  0x16, 0xfa, 0xaa, 0x4d, 0x81, 0xec, 0x07, 0xef, 0x28, 0x9d, 0x13, 0x11,
  0x36, 0x2e, 0xc6, 0x28, 0x89, 0x7f, 0x18, 0xc4, 0x07, 0xd4, 0x52, 0xf5,
  0x81, 0xd1, 0x40, 0x29, 0xf8, 0x44, 0xd5, 0xce, 0xd2, 0x48, 0xb1, 0x28,
  0x2e, 0x1e, 0xd0, 0xca, 0xbd, 0xaa, 0xbe, 0x8f, 0xd5, 0x5f, 0x20, 0xcb,
  0xf0, 0x14, 0x18, 0xff, 0x0a, 0xf9, 0xe7, 0x81, 0xd5, 0x3d, 0xfe, 0xf6,
  0xfb, 0x81, 0xe5, 0x37, 0xf7, 0x0f, 0x1e, 0xd8, 0xe9, 0x14, 0x11, 0x1b,
  0x76, 0xbb, 0x2d, 0x56, 0xbd, 0x4b, 0x44, 0xed, 0x7c, 0xa6, 0x81, 0x64,
  0x3d, 0xe5, 0xb4, 0xef, 0xe8, 0x3a, 0xe2, 0x2f, 0x0f, 0x7f, 0x30, 0x28,
  0xce, 0x20, 0xa8, 0xab, 0x0a, 0xef, 0x1c, 0x35, 0x30, 0x3c, 0xc6, 0x30,
  0xd5, 0xdb, 0x14, 0x10, 0x56, 0xd6, 0x19, 0x19, 0xb7, 0xe6, 0x11, 0x81,
  0x12, 0x37, 0x05, 0x36, 0x0a, 0x02, 0x4b, 0x0a, 0x24, 0x30, 0xd6, 0x7f,
  0x46, 0x8f, 0x3d, 0xfa, 0xf9, 0x2a, 0xcd, 0x15, 0x1c, 0xef, 0x06, 0xd8,
  0x1c, 0x5b, 0xa0, 0x0f, 0x7f, 0xea, 0x9d, 0x1b, 0x0a, 0xa8, 0x22, 0xc4,
  0x18, 0x1c, 0xde, 0x11, 0xe5, 0x81, 0xb2, 0xe8, 0xbe, 0x19, 0x50, 0x17,
  0x48, 0xdb, 0xd8, 0xd9, 0x55, 0x01, 0x4b, 0x46, 0xcd, 0xef, 0x6a, 0x2f,
  0x11, 0x17, 0x7f, 0xdd, 0x65, 0xa8, 0x91, 0xa9, 0x81, 0x4f, 0x2e, 0xcf,
  0x14, 0x2b, 0x69, 0x22, 0xe6, 0x13, 0xb8, 0x8b, 0x7c, 0x2c, 0x22, 0x2b,
  0xe3, 0xa4, 0xab, 0xfc, 0xdd, 0xe2, 0xa6, 0x25, 0xd1, 0xe4, 0x15, 0x7f,
  0x36, 0xde, 0x37, 0x09, 0x50, 0x86, 0x2c, 0xc4, 0xe0, 0x7f, 0xdd, 0xd8,
  0xfa, 0x60, 0x0c, 0x35, 0xee, 0xdd, 0x12, 0x36, 0xea, 0x35, 0xfb, 0xfb,
  0xfa, 0x48, 0xed, 0xef, 0x12, 0xf5, 0x0e, 0x7f, 0xf0, 0xf3, 0x25, 0x00,
  0x16, 0xbb, 0xf1, 0xf9, 0xe8, 0x33, 0xf8, 0x0a, 0x7f, 0xff, 0xe7, 0xf7,
  0x2e, 0xf6, 0xff, 0xff, 0x04, 0x00, 0x00, 0x00, 0x00, 0x01, 0x00, 0x00,
  0x92, 0xfd, 0xff, 0xff, 0x4b, 0x02, 0x00, 0x00, 0x1d, 0xff, 0xff, 0xff,
  0x30, 0xfc, 0xff, 0xff, 0xe7, 0xf8, 0xff, 0xff, 0x48, 0xfd, 0xff, 0xff,
  0x6c, 0x09, 0x00, 0x00, 0xe8, 0x04, 0x00, 0x00, 0x9e, 0x01, 0x00, 0x00,
  0x7b, 0x02, 0x00, 0x00, 0xa9, 0xf9, 0xff, 0xff, 0x99, 0xfc, 0xff, 0xff,
  0x96, 0xfb, 0xff, 0xff, 0x8b, 0x00, 0x00, 0x00, 0xd0, 0xf9, 0xff, 0xff,
  0xf3, 0x02, 0x00, 0x00, 0xb5, 0xf9, 0xff, 0xff, 0x40, 0xfe, 0xff, 0xff,
  0x0f, 0x01, 0x00, 0x00, 0x18, 0xfb, 0xff, 0xff, 0xf3, 0xfa, 0xff, 0xff,
  0x19, 0x04, 0x00, 0x00, 0xb5, 0x05, 0x00, 0x00, 0xc2, 0xf9, 0xff, 0xff,
  0x5b, 0x05, 0x00, 0x00, 0x91, 0x01, 0x00, 0x00, 0xf6, 0xfd, 0xff, 0xff,
  0x79, 0xfa, 0xff, 0xff, 0xd9, 0xfc, 0xff, 0xff, 0x62, 0xfd, 0xff, 0xff,
  0x33, 0xfd, 0xff, 0xff, 0xd0, 0xfa, 0xff, 0xff, 0x3e, 0x04, 0x00, 0x00,
  0x44, 0xff, 0xff, 0xff, 0xef, 0x02, 0x00, 0x00, 0x7c, 0xfc, 0xff, 0xff,
  0xcc, 0xfd, 0xff, 0xff, 0x17, 0xf7, 0xff, 0xff, 0x1a, 0xfc, 0xff, 0xff,
  0x02, 0xfe, 0xff, 0xff, 0x6f, 0xfb, 0xff, 0xff, 0xd2, 0x01, 0x00, 0x00,
  0x74, 0x00, 0x00, 0x00, 0xd0, 0xfc, 0xff, 0xff, 0x08, 0xff, 0xff, 0xff,
  0x4a, 0x01, 0x00, 0x00, 0xa2, 0x0b, 0x00, 0x00, 0xa7, 0xff, 0xff, 0xff,
  0xc8, 0xfb, 0xff, 0xff, 0xdb, 0xfd, 0xff, 0xff, 0x6f, 0xfa, 0xff, 0xff,
  0x9c, 0x00, 0x00, 0x00, 0x65, 0x03, 0x00, 0x00, 0x51, 0xf1, 0xff, 0xff,
  0x2c, 0x03, 0x00, 0x00, 0x26, 0xf3, 0xff, 0xff, 0x5f, 0x03, 0x00, 0x00,
  0x85, 0x09, 0x00, 0x00, 0x1b, 0xfd, 0xff, 0xff, 0xd2, 0xfc, 0xff, 0xff,
  0xff, 0xfd, 0xff, 0xff, 0x1b, 0xfe, 0xff, 0xff, 0x32, 0xf6, 0xff, 0xff,
  0x27, 0x00, 0x00, 0x00, 0x3a, 0xf7, 0xff, 0xff, 0x04, 0x00, 0x00, 0x00,
  0x00, 0x08, 0x00, 0x00, 0x3b, 0x12, 0x2e, 0x25, 0x02, 0xad, 0x20, 0x37,
  0x09, 0x2c, 0x08, 0x2c, 0x04, 0xf2, 0xca, 0x22, 0xf0, 0x08, 0xc7, 0xd4,
  0xbc, 0x02, 0x0a, 0x81, 0xd8, 0x33, 0x0c, 0xcd, 0x23, 0xff, 0xcd, 0xb7,
  0x13, 0xf6, 0xb0, 0xeb, 0x0a, 0x08, 0x11, 0x2c, 0xe3, 0xbc, 0xf9, 0xe3,
  0x07, 0xcd, 0x0c, 0x2d, 0xc7, 0x0a, 0x2a, 0xfb, 0x1e, 0xfc, 0x33, 0x1a,
  0x04, 0x23, 0xf7, 0x23, 0x05, 0xf4, 0x24, 0xa5, 0xbf, 0xfa, 0x0a, 0x1c,
  0x09, 0xec, 0xb7, 0xcd, 0x46, 0xdc, 0x14, 0x23, 0x00, 0x63, 0xd5, 0xd4,
  0x7b, 0xfc, 0xdf, 0xe0, 0x70, 0x4a, 0x9d, 0x4b, 0x52, 0xfb, 0xc8, 0x14,
  0x10, 0xa0, 0x20, 0x5a, 0x6d, 0xce, 0x12, 0xbf, 0x81, 0x53, 0x2b, 0xf9,
  0x62, 0xc5, 0x5e, 0x0c, 0x13, 0xdf, 0x18, 0x24, 0xa7, 0xa7, 0x33, 0x6e,
  0x52, 0x5a, 0x29, 0x33, 0xf1, 0x5e, 0x2c, 0x18, 0xd3, 0xeb, 0x18, 0x1a,
  0x28, 0x15, 0x81, 0xfe, 0xf5, 0x15, 0x2a, 0x18, 0xc1, 0x22, 0xd5, 0xbf,
  0xe0, 0x0e, 0x13, 0xf8, 0x1e, 0x27, 0x09, 0xe3, 0xe0, 0x09, 0xcb, 0x0c,
  0x1d, 0xbe, 0xd6, 0x0e, 0x05, 0x0e, 0xfe, 0xf5, 0x0b, 0xdf, 0x1c, 0xeb,
  0x02, 0x1e, 0xee, 0xfa, 0xcb, 0xee, 0x1b, 0x23, 0xe9, 0xf7, 0x2c, 0xf5,
  0xfc, 0xef, 0xe4, 0x01, 0xe2, 0x06, 0x01, 0xf2, 0x1e, 0x19, 0x10, 0xda,
  0xeb, 0x52, 0xe6, 0x25, 0xe9, 0x03, 0xfb, 0xfa, 0x33, 0xac, 0x14, 0x08,
  0x10, 0xec, 0x03, 0x17, 0xe0, 0xe4, 0xc9, 0x03, 0x1c, 0xcf, 0xd8, 0x60,
  0xfa, 0x18, 0x12, 0x1f, 0x36, 0x07, 0x1d, 0xfe, 0x2a, 0x1d, 0xf2, 0xfb,
  0xf3, 0xe2, 0x05, 0x81, 0xc8, 0xe6, 0x1f, 0x08, 0x04, 0xd1, 0xe4, 0x09,
  0xfc, 0x02, 0x19, 0xf0, 0x34, 0x07, 0xee, 0xf7, 0xd6, 0xa4, 0x21, 0xcc,
  0x0d, 0xf4, 0xed, 0xe7, 0x16, 0x1b, 0x34, 0xa9, 0x4a, 0x81, 0x47, 0xd9,
  0xe0, 0xfd, 0xfe, 0xec, 0xf3, 0x15, 0x33, 0xe6, 0xfb, 0x37, 0x06, 0x0e,
  0xc1, 0x19, 0xcf, 0xdf, 0x1a, 0xd3, 0xf2, 0xc1, 0x3c, 0xf9, 0x2c, 0xa0,
  0x30, 0x3d, 0x18, 0x4c, 0x19, 0xb4, 0xbd, 0xdf, 0xe7, 0xea, 0xea, 0xa6,
  0xb6, 0x00, 0xbb, 0xcd, 0x3b, 0x20, 0x13, 0x08, 0x01, 0x1a, 0x27, 0xe8,
  0x1f, 0xd4, 0x12, 0xde, 0xfb, 0xbf, 0xb5, 0x1b, 0xd4, 0x90, 0x16, 0xdd,
  0xdb, 0xc1, 0xfe, 0xc1, 0xfa, 0xf9, 0x96, 0xfb, 0x10, 0x1a, 0xfb, 0x34,
  0xf4, 0x23, 0x03, 0xda, 0x26, 0xf4, 0xec, 0x28, 0x0e, 0x57, 0xba, 0x3a,
  0xd0, 0xf6, 0xe0, 0x0d, 0x05, 0x1a, 0xe7, 0x0e, 0x2c, 0x1d, 0xda, 0xc7,
  0xd4, 0xe2, 0x9a, 0xe5, 0xd9, 0xd3, 0x7f, 0x28, 0x5c, 0xc7, 0x23, 0x2e,
  0xe9, 0xbb, 0x19, 0x3c, 0x14, 0xc8, 0xf0, 0x15, 0x13, 0x19, 0xe4, 0xd1,
  0xea, 0x30, 0xe7, 0x23, 0x0a, 0xdb, 0xfa, 0xd1, 0xc2, 0x17, 0xe0, 0x01,
  0x0c, 0x06, 0x01, 0x0a, 0xf7, 0x10, 0xd3, 0xf9, 0xe3, 0x16, 0x20, 0x01,
  0xf8, 0xdb, 0x12, 0x04, 0x0d, 0x0b, 0xe4, 0x0f, 0xf1, 0x18, 0xec, 0xfe,
  0xbf, 0x02, 0x0c, 0xfe, 0xcd, 0x24, 0x0c, 0x00, 0xe8, 0x11, 0x0d, 0x1a,
  0xfa, 0xe6, 0x0e, 0x00, 0x00, 0x21, 0xf6, 0xf4, 0xe0, 0x12, 0x81, 0xe7,
  0x16, 0x1a, 0xf6, 0xec, 0x3b, 0xe9, 0xe6, 0x37, 0x0e, 0x0c, 0xf1, 0x29,
  0xd2, 0x0f, 0xe0, 0xea, 0x0f, 0x0c, 0x1a, 0x2a, 0x17, 0xd3, 0x07, 0x0e,
  0xa8, 0x0a, 0x21, 0x1f, 0xf3, 0x02, 0xf6, 0x24, 0xf9, 0x05, 0x0c, 0x05,
  0x09, 0xf5, 0xee, 0xde, 0xc0, 0xf7, 0xe2, 0xf9, 0xa9, 0x03, 0x0e, 0x04,
  0xef, 0x14, 0xec, 0x20, 0x19, 0xf3, 0x01, 0x1b, 0xe1, 0x1f, 0x06, 0x0d,
  0x10, 0x00, 0x81, 0xe4, 0x15, 0x00, 0x11, 0xcc, 0x15, 0x01, 0x0c, 0xf5,
  0x21, 0xc8, 0xf1, 0xb5, 0xcb, 0xee, 0x19, 0xd1, 0x04, 0x04, 0x15, 0xd4,
  0xda, 0xe6, 0xe3, 0x0c, 0xf9, 0x9f, 0xf1, 0xd3, 0x28, 0xe6, 0x31, 0xad,
  0x00, 0xa8, 0x17, 0xc0, 0xc5, 0x30, 0x11, 0xfc, 0x08, 0xdb, 0xcc, 0x37,
  0x0a, 0xa7, 0xf6, 0x04, 0xb7, 0xff, 0x11, 0xc0, 0xef, 0xfc, 0x16, 0x0d,
  0x0b, 0xf6, 0x33, 0xdc, 0xe0, 0x81, 0xec, 0xb8, 0x06, 0x08, 0xf8, 0xfe,
  0x16, 0xfb, 0x00, 0xe6, 0xc7, 0x0c, 0x1d, 0x0a, 0xf1, 0x62, 0x35, 0x07,
  0x46, 0xc2, 0xe3, 0xe8, 0xca, 0x21, 0x4e, 0xf3, 0xde, 0xe5, 0x45, 0xef,
  0x2b, 0x12, 0x4a, 0xf8, 0xc3, 0xfc, 0x00, 0x29, 0x0a, 0xc8, 0xf4, 0xb3,
  0x31, 0x54, 0xf5, 0xea, 0x93, 0xe8, 0xb8, 0xe2, 0xc4, 0x22, 0x5a, 0x26,
  0x0b, 0x44, 0x33, 0x81, 0x14, 0xc8, 0xe2, 0x18, 0x27, 0xdf, 0xc9, 0x3f,
  0xd7, 0xaa, 0x73, 0xf7, 0xe7, 0x26, 0xe3, 0x1d, 0x15, 0xe9, 0x81, 0x1a,
  0xe0, 0xe6, 0x15, 0xdf, 0x26, 0x13, 0xf9, 0x9c, 0xef, 0xcf, 0xe3, 0x11,
  0xec, 0x18, 0xfe, 0xd7, 0xea, 0x17, 0x0c, 0xd5, 0x16, 0x8d, 0x01, 0x16,
  0x18, 0x43, 0xfc, 0xac, 0xdd, 0xe9, 0x07, 0x24, 0xef, 0x46, 0x04, 0x06,
  0x29, 0xef, 0x1e, 0xd1, 0xd0, 0xce, 0x39, 0xcd, 0x05, 0x28, 0x15, 0xfb,
  0x2b, 0xb7, 0xd4, 0xea, 0x2d, 0x24, 0x22, 0xfe, 0x12, 0x07, 0xc8, 0xc1,
  0x38, 0x1d, 0x15, 0xce, 0xdb, 0xfc, 0x4a, 0x10, 0xe6, 0xc8, 0x71, 0xd8,
  0xfd, 0x2d, 0xb6, 0xbd, 0x04, 0x33, 0xd9, 0x4f, 0x81, 0xc6, 0x33, 0x0a,
  0xa6, 0x39, 0x56, 0x98, 0x16, 0x25, 0x31, 0x66, 0xe4, 0x8a, 0xc1, 0xbb,
  0xff, 0x32, 0x1e, 0x45, 0xe0, 0xec, 0xbb, 0xe9, 0x4f, 0xa1, 0x6e, 0x69,
  0x06, 0x55, 0x1d, 0xdd, 0x2c, 0xfc, 0x19, 0xb5, 0xc3, 0xac, 0x41, 0x0e,
  0xec, 0x25, 0x5c, 0xe2, 0xdd, 0xd1, 0x81, 0xc2, 0x2f, 0x10, 0x16, 0xf3,
  0x2f, 0xf2, 0x0d, 0xfd, 0x08, 0x37, 0x2a, 0xc9, 0x03, 0x02, 0x2c, 0x08,
  0x27, 0xec, 0xf6, 0x0a, 0x1e, 0xa6, 0x3a, 0x15, 0x0d, 0xed, 0xe9, 0x09,
  0x01, 0x20, 0x32, 0xf9, 0xd4, 0x40, 0xd3, 0xe2, 0xb6, 0x25, 0xd9, 0x71,
  0x08, 0xf8, 0x15, 0xee, 0x34, 0xff, 0x00, 0xff, 0xb6, 0xef, 0x4e, 0xe7,
  0x39, 0xce, 0x25, 0xf0, 0x29, 0x17, 0x5a, 0x24, 0x17, 0x4d, 0xf4, 0x01,
  0xd5, 0xa7, 0xc1, 0xfb, 0x05, 0x01, 0x19, 0xa6, 0x00, 0xd7, 0x24, 0xe3,
  0xe1, 0x5b, 0xee, 0xff, 0xf6, 0x22, 0x2b, 0x5f, 0xf1, 0x3b, 0xff, 0x1c,
  0x2c, 0x28, 0x38, 0x1b, 0xb6, 0x1a, 0x1b, 0xe0, 0x4d, 0xde, 0x1a, 0xef,
  0xad, 0xc2, 0x65, 0x50, 0x3a, 0x4b, 0x9c, 0x5e, 0x38, 0x4d, 0x9d, 0xd7,
  0xe2, 0x4f, 0x0d, 0x37, 0x81, 0xe7, 0xdf, 0xf8, 0xe0, 0xee, 0x29, 0x10,
  0xe2, 0x0a, 0x81, 0x07, 0xf2, 0x23, 0x20, 0xea, 0xf1, 0xec, 0xdd, 0xe9,
  0xed, 0x23, 0xde, 0xda, 0x0b, 0xfe, 0xf4, 0x01, 0xd0, 0xf7, 0xd1, 0x18,
  0xff, 0xba, 0xf4, 0xf9, 0xd7, 0x06, 0x29, 0xfb, 0x0b, 0xe0, 0x13, 0x0d,
  0x10, 0x19, 0xf9, 0xfd, 0xe8, 0x26, 0xed, 0xcf, 0x24, 0xfd, 0xe9, 0xf7,
  0x19, 0x00, 0x1f, 0xf5, 0x08, 0x1b, 0xf2, 0xee, 0x0a, 0xbf, 0xea, 0x13,
  0xf8, 0x1e, 0x0c, 0x05, 0x09, 0xdf, 0x9a, 0x81, 0xee, 0xf7, 0x1d, 0xe7,
  0x0c, 0xf0, 0xe4, 0x1f, 0x2c, 0xf5, 0xee, 0x1a, 0xbe, 0x0f, 0x0c, 0xe2,
  0xdc, 0x9b, 0x2e, 0xf2, 0xf9, 0xce, 0x16, 0xab, 0xda, 0x1a, 0xd0, 0x18,
  0xd9, 0x05, 0xdc, 0xfb, 0xc6, 0xe8, 0xe7, 0x05, 0xe2, 0x52, 0x27, 0xe7,
  0x23, 0xd7, 0x24, 0xea, 0x1e, 0x27, 0x31, 0xb5, 0x1e, 0x11, 0xbe, 0xcc,
  0xfa, 0x0e, 0x21, 0x16, 0xf7, 0x1f, 0xb9, 0xb8, 0xc6, 0xfa, 0x10, 0xd3,
  0xf4, 0x11, 0xf7, 0xd6, 0xa0, 0x11, 0x2c, 0x20, 0xf0, 0x19, 0xf8, 0x23,
  0xb2, 0xff, 0x10, 0xfd, 0xa1, 0xb9, 0xef, 0xe2, 0x07, 0xfe, 0x24, 0xc1,
  0xe6, 0x30, 0xf1, 0xd1, 0xfc, 0xdc, 0x2d, 0xdd, 0x81, 0x1a, 0xdf, 0x3f,
  0xe9, 0xe0, 0xcc, 0x22, 0x1d, 0xe0, 0x06, 0xf0, 0xc7, 0x0c, 0x3f, 0xdc,
  0x0b, 0x23, 0x0e, 0xef, 0x1a, 0xd9, 0xf5, 0x1f, 0x45, 0xeb, 0x08, 0xe9,
  0xce, 0xec, 0xff, 0xd3, 0xf7, 0x1b, 0x00, 0xee, 0xf4, 0xd8, 0xef, 0x46,
  0xe4, 0xf9, 0xdf, 0xec, 0xca, 0x1c, 0x06, 0xec, 0xf6, 0x38, 0x31, 0x26,
  0x0c, 0x06, 0x1b, 0x16, 0x1d, 0xb0, 0x36, 0xef, 0xca, 0x11, 0x1b, 0x3e,
  0x3a, 0x81, 0x33, 0xd9, 0xcd, 0x38, 0xe3, 0x1b, 0x1d, 0xd0, 0xfd, 0xc8,
  0x11, 0xfc, 0x18, 0x39, 0xef, 0xf7, 0x27, 0xe5, 0x02, 0xc8, 0x07, 0x2a,
  0xfe, 0xf3, 0xcb, 0xed, 0x05, 0xe4, 0xe4, 0x02, 0xf8, 0xea, 0xf6, 0xf3,
  0xfc, 0xfa, 0x19, 0xff, 0xf6, 0xe0, 0x03, 0xd9, 0xee, 0xe6, 0xa0, 0xf5,
  0xf6, 0xf6, 0xff, 0xd8, 0x1b, 0xd4, 0x0e, 0x09, 0x81, 0xce, 0xd8, 0xfa,
  0x07, 0xdb, 0x09, 0x01, 0x0f, 0xf0, 0x13, 0xe3, 0x09, 0xff, 0x12, 0xe2,
  0x12, 0x0e, 0x0a, 0xfd, 0x12, 0x11, 0xed, 0x01, 0xe5, 0x25, 0x0f, 0xf5,
  0xf1, 0xff, 0x10, 0x10, 0xfd, 0x21, 0xdc, 0xef, 0x2e, 0x0f, 0xca, 0x40,
  0x59, 0xb1, 0x2d, 0xf3, 0xac, 0x0c, 0x66, 0xd5, 0xe0, 0x25, 0x5d, 0xe1,
  0xe9, 0xc7, 0x3b, 0x38, 0xb9, 0xa6, 0x23, 0xf3, 0x0c, 0xfb, 0x1e, 0xc5,
  0xea, 0x1d, 0x01, 0xea, 0xf7, 0x25, 0xb7, 0x44, 0xa4, 0x2a, 0x11, 0x0e,
  0x4c, 0xa8, 0x28, 0x4a, 0xd3, 0xe5, 0x7f, 0x42, 0x10, 0x2e, 0xf9, 0xaa,
  0x1b, 0x15, 0x35, 0x0b, 0x3b, 0xe4, 0x2a, 0x23, 0xde, 0x37, 0x10, 0xc6,
  0xb2, 0x8a, 0x02, 0x4c, 0x02, 0x25, 0xf2, 0xbd, 0xc7, 0xd8, 0x1d, 0xf7,
  0x0b, 0x0c, 0x83, 0x93, 0x2c, 0x27, 0x36, 0x1d, 0xc7, 0x1a, 0x05, 0x06,
  0xfc, 0x24, 0x28, 0xc3, 0xcc, 0x1d, 0xcc, 0x25, 0x11, 0xf9, 0xd1, 0x1f,
  0x23, 0x2e, 0xd9, 0xe2, 0xc1, 0x01, 0x81, 0xb4, 0x10, 0x05, 0x98, 0xe9,
  0x19, 0x8f, 0x60, 0xcd, 0x19, 0x3d, 0xf8, 0xf0, 0xd6, 0xe9, 0xad, 0x00,
  0x12, 0x26, 0x28, 0x26, 0x16, 0x09, 0x39, 0x05, 0x3e, 0x07, 0x10, 0xc1,
  0x0d, 0x41, 0x63, 0x13, 0x40, 0xe1, 0x19, 0xe1, 0x01, 0x2f, 0xfc, 0xf9,
  0x7f, 0xb6, 0xf2, 0xc7, 0x59, 0x3e, 0x10, 0x4b, 0xda, 0x36, 0xb2, 0xfd,
  0x09, 0xe9, 0x24, 0xf8, 0x15, 0xf4, 0xb3, 0x12, 0xd8, 0x0a, 0xb3, 0x3b,
  0xa3, 0xf7, 0xf9, 0x17, 0x91, 0x23, 0x48, 0xcf, 0x23, 0xec, 0xdf, 0xd5,
  0x29, 0x01, 0xbb, 0xe7, 0x35, 0xa7, 0xe7, 0x13, 0x1e, 0x8f, 0xa9, 0xe9,
  0xf0, 0xf0, 0xdd, 0x2f, 0x1a, 0x17, 0x2a, 0xc5, 0xf1, 0xe3, 0x18, 0xe5,
  0xa8, 0xeb, 0x14, 0x17, 0x09, 0xca, 0x1d, 0xfa, 0x0d, 0x81, 0x1b, 0xf1,
  0x1f, 0xec, 0xd2, 0x13, 0xd0, 0xf5, 0xd4, 0xcc, 0xa0, 0x05, 0xfe, 0x2d,
  0xec, 0x23, 0xc2, 0xd4, 0xde, 0x1a, 0xfc, 0xf7, 0x93, 0x18, 0x2b, 0x1a,
  0xdf, 0xf8, 0xd9, 0x0a, 0xed, 0x1b, 0xfe, 0x00, 0xef, 0xe9, 0x0d, 0xd7,
  0x0b, 0xeb, 0x16, 0xf3, 0xf7, 0xe2, 0x18, 0x18, 0xff, 0x1f, 0x07, 0x05,
  0x01, 0x06, 0xd9, 0xfc, 0xd8, 0x0e, 0xfa, 0xc5, 0xcb, 0xf4, 0x14, 0xbd,
  0xe9, 0x11, 0x06, 0xf6, 0x09, 0x0e, 0xf7, 0x0d, 0x0d, 0xfe, 0xea, 0xe4,
  0xfa, 0x15, 0xea, 0x0e, 0x00, 0x02, 0xd6, 0x14, 0x01, 0x02, 0x1e, 0xfc,
  0x03, 0x0c, 0x04, 0xd2, 0x09, 0xe3, 0xf1, 0x19, 0x1e, 0x1e, 0xec, 0xe9,
  0xdd, 0xea, 0x0a, 0x81, 0xd9, 0x9a, 0x94, 0xd5, 0x45, 0xf7, 0x1f, 0x3c,
  0x87, 0xe9, 0xfc, 0x7f, 0x18, 0x24, 0xe1, 0x34, 0xb6, 0xdf, 0x0a, 0xd3,
  0xde, 0xfa, 0x0c, 0x25, 0x34, 0xd4, 0x12, 0xdd, 0x23, 0xf1, 0x38, 0x25,
  0xdb, 0xab, 0x37, 0xfe, 0xfb, 0x13, 0xf1, 0x59, 0xe9, 0x49, 0xcd, 0xef,
  0xe0, 0x0a, 0xa0, 0xcf, 0xbf, 0xb0, 0x46, 0x18, 0x06, 0x6a, 0xd9, 0x2c,
  0x35, 0xd8, 0xc5, 0x94, 0xdd, 0x3a, 0x35, 0x0b, 0xf8, 0xc5, 0x3e, 0xb9,
  0x59, 0xc8, 0x71, 0xef, 0x1c, 0x20, 0x03, 0x48, 0x1d, 0xf6, 0x42, 0x60,
  0x87, 0x0c, 0xd2, 0x0a, 0x0d, 0xa0, 0x62, 0xc3, 0x08, 0xae, 0xd8, 0xba,
  0x38, 0x16, 0xea, 0x62, 0xea, 0xe4, 0xfe, 0xcd, 0x99, 0xd0, 0x2c, 0x16,
  0x12, 0x20, 0x19, 0xd1, 0xec, 0xcb, 0x1c, 0x54, 0x99, 0x12, 0x22, 0x04,
  0x47, 0x57, 0x29, 0xff, 0x3e, 0xff, 0x30, 0x46, 0xba, 0xae, 0x22, 0x81,
  0x00, 0x81, 0x09, 0xe3, 0xf7, 0x99, 0xeb, 0x2b, 0xbb, 0x0a, 0x12, 0x29,
  0xe2, 0xfb, 0xea, 0xe9, 0x05, 0xef, 0xfa, 0xf4, 0xde, 0xba, 0x24, 0xd7,
  0xf9, 0xfa, 0xf8, 0xe6, 0x1d, 0xe8, 0x23, 0x35, 0xd5, 0x26, 0xbd, 0xeb,
  0xda, 0xf9, 0xaa, 0xd7, 0xdb, 0xd4, 0x3b, 0xf6, 0xeb, 0x1e, 0x27, 0xea,
  0x01, 0xdb, 0xd0, 0xed, 0xd7, 0xee, 0x0f, 0x07, 0xef, 0x1f, 0x13, 0xed,
  0xf3, 0xd3, 0x1b, 0x01, 0x09, 0xed, 0xdf, 0xcb, 0xd6, 0xef, 0x09, 0x10,
  0xf1, 0xef, 0x11, 0xe4, 0x11, 0x1b, 0x24, 0x05, 0xe9, 0x0e, 0x18, 0x83,
  0xb9, 0x9a, 0x05, 0x96, 0x30, 0x10, 0xfe, 0xf9, 0x00, 0x1b, 0xee, 0xe8,
  0xf8, 0x9d, 0x07, 0xc1, 0x15, 0xe0, 0xea, 0x02, 0xd5, 0xff, 0xe1, 0xe9,
  0x24, 0xf2, 0x03, 0xfe, 0xee, 0xfe, 0x1e, 0xf8, 0x12, 0xfa, 0x0e, 0xf8,
  0x19, 0x12, 0x00, 0x22, 0xd9, 0x15, 0x17, 0x81, 0xfb, 0x0e, 0xf8, 0xef,
  0x06, 0x17, 0xf1, 0x1d, 0xeb, 0xe5, 0xff, 0xfc, 0xfe, 0x16, 0x09, 0x0a,
  0x23, 0xbc, 0xbd, 0xf2, 0x13, 0xd8, 0x12, 0xfb, 0x81, 0x08, 0xec, 0x38,
  0x0e, 0xd8, 0x10, 0xcf, 0x04, 0xf0, 0xd6, 0x1a, 0x13, 0xe9, 0xd3, 0x1c,
  0xf0, 0xf2, 0x27, 0x0d, 0xf4, 0x02, 0xec, 0xc9, 0x05, 0xe2, 0x01, 0x18,
  0xe6, 0x2b, 0xe3, 0x14, 0x81, 0x21, 0x21, 0x14, 0x01, 0x10, 0x0c, 0xde,
  0x49, 0xd1, 0x46, 0xef, 0x21, 0xb3, 0x4e, 0x18, 0x08, 0xd7, 0x15, 0x49,
  0xff, 0x03, 0xa5, 0xee, 0xcf, 0x28, 0x2f, 0xd8, 0xf9, 0xad, 0xa5, 0x11,
  0x2d, 0x4e, 0xf7, 0xef, 0x00, 0xfb, 0xc8, 0x31, 0x12, 0xef, 0x4b, 0x14,
  0x16, 0x20, 0xcc, 0x17, 0x08, 0x3a, 0xe1, 0x17, 0x2a, 0x3b, 0xe0, 0x0e,
  0x27, 0xec, 0xfd, 0xbe, 0xb1, 0x95, 0x16, 0x81, 0x0f, 0xdd, 0xfa, 0x1f,
  0x89, 0x47, 0xf3, 0x23, 0xf7, 0x85, 0x81, 0xdd, 0x65, 0xd2, 0x26, 0x20,
  0x11, 0xd3, 0x0e, 0x71, 0x2a, 0x13, 0xba, 0x12, 0x31, 0x3f, 0x29, 0xde,
  0xf9, 0xee, 0xe0, 0x9d, 0xe5, 0xf3, 0x4d, 0xe5, 0x54, 0xa0, 0xdb, 0x01,
  0x29, 0xdb, 0xfc, 0x59, 0x10, 0xd2, 0x2b, 0x14, 0xba, 0x47, 0x00, 0x33,
  0x22, 0xc4, 0xe5, 0xb5, 0x01, 0x36, 0xfe, 0x29, 0xdf, 0xc9, 0x52, 0xc5,
  0xff, 0xbf, 0x39, 0xbb, 0x1b, 0x20, 0x09, 0xb3, 0xdd, 0x81, 0xf1, 0x16,
  0xfd, 0x1c, 0xdf, 0xcc, 0xd9, 0xf4, 0x0b, 0x19, 0x19, 0x11, 0x14, 0xed,
  0xee, 0x0d, 0x1a, 0x06, 0x09, 0x27, 0xe3, 0xfa, 0xd8, 0x23, 0xf3, 0x02,
  0xc1, 0x1c, 0xf0, 0x08, 0xf7, 0xf7, 0x2e, 0xe3, 0x14, 0xf7, 0x13, 0x0a,
  0x0b, 0xf9, 0xf9, 0xf7, 0xfa, 0xf2, 0xfb, 0x06, 0x31, 0x06, 0xe9, 0xe5,
  0x05, 0x30, 0x13, 0x2d, 0xd6, 0xe5, 0x31, 0x04, 0xf5, 0xfc, 0xe2, 0x21,
  0x46, 0xff, 0xff, 0xff, 0x04, 0x00, 0x00, 0x00, 0x80, 0x00, 0x00, 0x00,
  0x5f, 0x04, 0x00, 0x00, 0xb7, 0x03, 0x00, 0x00, 0x15, 0x06, 0x00, 0x00,
  0x65, 0x06, 0x00, 0x00, 0xb6, 0xfd, 0xff, 0xff, 0x3c, 0x00, 0x00, 0x00,
  0xcf, 0xfe, 0xff, 0xff, 0x05, 0xff, 0xff, 0xff, 0xe2, 0x03, 0x00, 0x00,
  0x51, 0xf4, 0xff, 0xff, 0x0d, 0x0a, 0x00, 0x00, 0x65, 0x03, 0x00, 0x00,
  0xe9, 0xff, 0xff, 0xff, 0x7c, 0xf7, 0xff, 0xff, 0xba, 0xfd, 0xff, 0xff,
  0x06, 0x0b, 0x00, 0x00, 0xa8, 0xfa, 0xff, 0xff, 0xd5, 0x05, 0x00, 0x00,
  0x42, 0xfe, 0xff, 0xff, 0xd4, 0x02, 0x00, 0x00, 0xb3, 0xf8, 0xff, 0xff,
  0x4d, 0xf9, 0xff, 0xff, 0x5a, 0x00, 0x00, 0x00, 0x8c, 0x05, 0x00, 0x00,
  0x29, 0x08, 0x00, 0x00, 0x22, 0x05, 0x00, 0x00, 0x97, 0x03, 0x00, 0x00,
  0xec, 0x04, 0x00, 0x00, 0x36, 0xff, 0xff, 0xff, 0x73, 0xfe, 0xff, 0xff,
  0x1a, 0x03, 0x00, 0x00, 0x1b, 0xff, 0xff, 0xff, 0xd2, 0xff, 0xff, 0xff,
  0x04, 0x00, 0x00, 0x00, 0x20, 0x00, 0x00, 0x00, 0x19, 0xfa, 0xe6, 0x17,
  0x5d, 0xe2, 0x24, 0x2d, 0xbe, 0x1d, 0xda, 0x1b, 0xda, 0xe2, 0x13, 0xd0,
  0x7f, 0xe9, 0x50, 0x09, 0xd9, 0x16, 0xe4, 0x30, 0x19, 0x1f, 0x2d, 0x51,
  0x1f, 0x18, 0xda, 0xd5, 0x00, 0x00, 0x06, 0x00, 0x08, 0x00, 0x04, 0x00,
  0x06, 0x00, 0x00, 0x00, 0x04, 0x00, 0x00, 0x00, 0x04, 0x00, 0x00, 0x00,
  0xab, 0x00, 0x00, 0x00, 0x84, 0xff, 0xff, 0xff, 0x88, 0xff, 0xff, 0xff,
  0x0f, 0x00, 0x00, 0x00, 0x4d, 0x4c, 0x49, 0x52, 0x20, 0x43, 0x6f, 0x6e,
  0x76, 0x65, 0x72, 0x74, 0x65, 0x64, 0x2e, 0x00, 0x01, 0x00, 0x00, 0x00,
  0x14, 0x00, 0x00, 0x00, 0x00, 0x00, 0x0e, 0x00, 0x18, 0x00, 0x14, 0x00,
  0x10, 0x00, 0x0c, 0x00, 0x08, 0x00, 0x04, 0x00, 0x0e, 0x00, 0x00, 0x00,
  0x14, 0x00, 0x00, 0x00, 0x1c, 0x00, 0x00, 0x00, 0xec, 0x00, 0x00, 0x00,
  0xf0, 0x00, 0x00, 0x00, 0xf4, 0x00, 0x00, 0x00, 0x04, 0x00, 0x00, 0x00,
  0x6d, 0x61, 0x69, 0x6e, 0x00, 0x00, 0x00, 0x00, 0x03, 0x00, 0x00, 0x00,
  0x94, 0x00, 0x00, 0x00, 0x4c, 0x00, 0x00, 0x00, 0x04, 0x00, 0x00, 0x00,
  0xca, 0xff, 0xff, 0xff, 0x14, 0x00, 0x00, 0x00, 0x00, 0x00, 0x00, 0x08,
  0x10, 0x00, 0x00, 0x00, 0x14, 0x00, 0x00, 0x00, 0x04, 0x00, 0x04, 0x00,
  0x04, 0x00, 0x00, 0x00, 0x01, 0x00, 0x00, 0x00, 0x09, 0x00, 0x00, 0x00,
  0x03, 0x00, 0x00, 0x00, 0x08, 0x00, 0x00, 0x00, 0x02, 0x00, 0x00, 0x00,
  0x01, 0x00, 0x00, 0x00, 0x00, 0x00, 0x0e, 0x00, 0x14, 0x00, 0x00, 0x00,
  0x10, 0x00, 0x0c, 0x00, 0x0b, 0x00, 0x04, 0x00, 0x0e, 0x00, 0x00, 0x00,
  0x10, 0x00, 0x00, 0x00, 0x00, 0x00, 0x00, 0x08, 0x10, 0x00, 0x00, 0x00,
  0x14, 0x00, 0x00, 0x00, 0xba, 0xff, 0xff, 0xff, 0x00, 0x00, 0x00, 0x01,
  0x01, 0x00, 0x00, 0x00, 0x08, 0x00, 0x00, 0x00, 0x03, 0x00, 0x00, 0x00,
  0x07, 0x00, 0x00, 0x00, 0x04, 0x00, 0x00, 0x00, 0x03, 0x00, 0x00, 0x00,
  0x00, 0x00, 0x0e, 0x00, 0x16, 0x00, 0x00, 0x00, 0x10, 0x00, 0x0c, 0x00,
  0x0b, 0x00, 0x04, 0x00, 0x0e, 0x00, 0x00, 0x00, 0x18, 0x00, 0x00, 0x00,
  0x00, 0x00, 0x00, 0x08, 0x18, 0x00, 0x00, 0x00, 0x1c, 0x00, 0x00, 0x00,
  0x00, 0x00, 0x06, 0x00, 0x08, 0x00, 0x07, 0x00, 0x06, 0x00, 0x00, 0x00,
  0x00, 0x00, 0x00, 0x01, 0x01, 0x00, 0x00, 0x00, 0x07, 0x00, 0x00, 0x00,
  0x03, 0x00, 0x00, 0x00, 0x00, 0x00, 0x00, 0x00, 0x06, 0x00, 0x00, 0x00,
  0x05, 0x00, 0x00, 0x00, 0x01, 0x00, 0x00, 0x00, 0x09, 0x00, 0x00, 0x00,
  0x01, 0x00, 0x00, 0x00, 0x00, 0x00, 0x00, 0x00, 0x0a, 0x00, 0x00, 0x00,
  0x5c, 0x0d, 0x00, 0x00, 0xe4, 0x0c, 0x00, 0x00, 0x68, 0x0c, 0x00, 0x00,
  0x94, 0x0a, 0x00, 0x00, 0xb8, 0x08, 0x00, 0x00, 0x64, 0x05, 0x00, 0x00,
  0x08, 0x02, 0x00, 0x00, 0x44, 0x01, 0x00, 0x00, 0x80, 0x00, 0x00, 0x00,
  0x04, 0x00, 0x00, 0x00, 0xe2, 0xf2, 0xff, 0xff, 0x00, 0x00, 0x00, 0x01,
  0x18, 0x00, 0x00, 0x00, 0x20, 0x00, 0x00, 0x00, 0x3c, 0x00, 0x00, 0x00,
  0x0a, 0x00, 0x00, 0x00, 0x00, 0x00, 0x00, 0x09, 0x50, 0x00, 0x00, 0x00,
  0x02, 0x00, 0x00, 0x00, 0xff, 0xff, 0xff, 0xff, 0x01, 0x00, 0x00, 0x00,
  0xcc, 0xf2, 0xff, 0xff, 0x08, 0x00, 0x00, 0x00, 0x10, 0x00, 0x00, 0x00,
  0x01, 0x00, 0x00, 0x00, 0xe1, 0xff, 0xff, 0xff, 0xff, 0xff, 0xff, 0xff,
  0x01, 0x00, 0x00, 0x00, 0x9b, 0xe6, 0xa9, 0x3c, 0x1b, 0x00, 0x00, 0x00,
  0x53, 0x74, 0x61, 0x74, 0x65, 0x66, 0x75, 0x6c, 0x50, 0x61, 0x72, 0x74,
  0x69, 0x74, 0x69, 0x6f, 0x6e, 0x65, 0x64, 0x43, 0x61, 0x6c, 0x6c, 0x5f,
  0x31, 0x3a, 0x30, 0x00, 0x02, 0x00, 0x00, 0x00, 0x01, 0x00, 0x00, 0x00,
  0x01, 0x00, 0x00, 0x00, 0x5a, 0xf3, 0xff, 0xff, 0x00, 0x00, 0x00, 0x01,
  0x18, 0x00, 0x00, 0x00, 0x20, 0x00, 0x00, 0x00, 0x40, 0x00, 0x00, 0x00,
  0x09, 0x00, 0x00, 0x00, 0x00, 0x00, 0x00, 0x09, 0x98, 0x00, 0x00, 0x00,
  0x02, 0x00, 0x00, 0x00, 0xff, 0xff, 0xff, 0xff, 0x20, 0x00, 0x00, 0x00,
  0x44, 0xf3, 0xff, 0xff, 0x08, 0x00, 0x00, 0x00, 0x14, 0x00, 0x00, 0x00,
  0x01, 0x00, 0x00, 0x00, 0x80, 0xff, 0xff, 0xff, 0xff, 0xff, 0xff, 0xff,
  0x00, 0x00, 0x00, 0x00, 0x01, 0x00, 0x00, 0x00, 0x47, 0xe7, 0x9e, 0x3c,
  0x5e, 0x00, 0x00, 0x00, 0x73, 0x65, 0x71, 0x75, 0x65, 0x6e, 0x74, 0x69,
  0x61, 0x6c, 0x5f, 0x31, 0x5f, 0x31, 0x2f, 0x64, 0x65, 0x6e, 0x73, 0x65,
  0x5f, 0x33, 0x5f, 0x31, 0x2f, 0x4d, 0x61, 0x74, 0x4d, 0x75, 0x6c, 0x3b,
  0x73, 0x65, 0x71, 0x75, 0x65, 0x6e, 0x74, 0x69, 0x61, 0x6c, 0x5f, 0x31,
  0x5f, 0x31, 0x2f, 0x64, 0x65, 0x6e, 0x73, 0x65, 0x5f, 0x33, 0x5f, 0x31,
  0x2f, 0x52, 0x65, 0x6c, 0x75, 0x3b, 0x73, 0x65, 0x71, 0x75, 0x65, 0x6e,
  0x74, 0x69, 0x61, 0x6c, 0x5f, 0x31, 0x5f, 0x31, 0x2f, 0x64, 0x65, 0x6e,
  0x73, 0x65, 0x5f, 0x33, 0x5f, 0x31, 0x2f, 0x42, 0x69, 0x61, 0x73, 0x41,
  0x64, 0x64, 0x00, 0x00, 0x02, 0x00, 0x00, 0x00, 0x01, 0x00, 0x00, 0x00,
  0x20, 0x00, 0x00, 0x00, 0x1a, 0xf4, 0xff, 0xff, 0x00, 0x00, 0x00, 0x01,
  0x18, 0x00, 0x00, 0x00, 0x20, 0x00, 0x00, 0x00, 0x40, 0x00, 0x00, 0x00,
  0x08, 0x00, 0x00, 0x00, 0x00, 0x00, 0x00, 0x09, 0x98, 0x00, 0x00, 0x00,
  0x02, 0x00, 0x00, 0x00, 0xff, 0xff, 0xff, 0xff, 0x40, 0x00, 0x00, 0x00,
  0x04, 0xf4, 0xff, 0xff, 0x08, 0x00, 0x00, 0x00, 0x14, 0x00, 0x00, 0x00,
  0x01, 0x00, 0x00, 0x00, 0x80, 0xff, 0xff, 0xff, 0xff, 0xff, 0xff, 0xff,
  0x00, 0x00, 0x00, 0x00, 0x01, 0x00, 0x00, 0x00, 0xd7, 0x4e, 0xb7, 0x3c,
  0x5e, 0x00, 0x00, 0x00, 0x73, 0x65, 0x71, 0x75, 0x65, 0x6e, 0x74, 0x69,
  0x61, 0x6c, 0x5f, 0x31, 0x5f, 0x31, 0x2f, 0x64, 0x65, 0x6e, 0x73, 0x65,
  0x5f, 0x32, 0x5f, 0x31, 0x2f, 0x4d, 0x61, 0x74, 0x4d, 0x75, 0x6c, 0x3b,
  0x73, 0x65, 0x71, 0x75, 0x65, 0x6e, 0x74, 0x69, 0x61, 0x6c, 0x5f, 0x31,
  0x5f, 0x31, 0x2f, 0x64, 0x65, 0x6e, 0x73, 0x65, 0x5f, 0x32, 0x5f, 0x31,
  0x2f, 0x52, 0x65, 0x6c, 0x75, 0x3b, 0x73, 0x65, 0x71, 0x75, 0x65, 0x6e,
  0x74, 0x69, 0x61, 0x6c, 0x5f, 0x31, 0x5f, 0x31, 0x2f, 0x64, 0x65, 0x6e,
  0x73, 0x65, 0x5f, 0x32, 0x5f, 0x31, 0x2f, 0x42, 0x69, 0x61, 0x73, 0x41,
  0x64, 0x64, 0x00, 0x00, 0x02, 0x00, 0x00, 0x00, 0x01, 0x00, 0x00, 0x00,
  0x40, 0x00, 0x00, 0x00, 0x4e, 0xf5, 0xff, 0xff, 0x00, 0x00, 0x00, 0x01,
  0x14, 0x00, 0x00, 0x00, 0x28, 0x03, 0x00, 0x00, 0x07, 0x00, 0x00, 0x00,
  0x00, 0x00, 0x00, 0x09, 0x34, 0x03, 0x00, 0x00, 0xb4, 0xf4, 0xff, 0xff,
  0x08, 0x00, 0x00, 0x00, 0x0c, 0x02, 0x00, 0x00, 0x40, 0x00, 0x00, 0x00,
  0x00, 0x00, 0x00, 0x00, 0x00, 0x00, 0x00, 0x00, 0x00, 0x00, 0x00, 0x00,
  0x00, 0x00, 0x00, 0x00, 0x00, 0x00, 0x00, 0x00, 0x00, 0x00, 0x00, 0x00,
  0x00, 0x00, 0x00, 0x00, 0x00, 0x00, 0x00, 0x00, 0x00, 0x00, 0x00, 0x00,
  0x00, 0x00, 0x00, 0x00, 0x00, 0x00, 0x00, 0x00, 0x00, 0x00, 0x00, 0x00,
  0x00, 0x00, 0x00, 0x00, 0x00, 0x00, 0x00, 0x00, 0x00, 0x00, 0x00, 0x00,
  0x00, 0x00, 0x00, 0x00, 0x00, 0x00, 0x00, 0x00, 0x00, 0x00, 0x00, 0x00,
  0x00, 0x00, 0x00, 0x00, 0x00, 0x00, 0x00, 0x00, 0x00, 0x00, 0x00, 0x00,
  0x00, 0x00, 0x00, 0x00, 0x00, 0x00, 0x00, 0x00, 0x00, 0x00, 0x00, 0x00,
  0x00, 0x00, 0x00, 0x00, 0x00, 0x00, 0x00, 0x00, 0x00, 0x00, 0x00, 0x00,
  0x00, 0x00, 0x00, 0x00, 0x00, 0x00, 0x00, 0x00, 0x00, 0x00, 0x00, 0x00,
  0x00, 0x00, 0x00, 0x00, 0x00, 0x00, 0x00, 0x00, 0x00, 0x00, 0x00, 0x00,
  0x00, 0x00, 0x00, 0x00, 0x00, 0x00, 0x00, 0x00, 0x00, 0x00, 0x00, 0x00,
  0x00, 0x00, 0x00, 0x00, 0x00, 0x00, 0x00, 0x00, 0x00, 0x00, 0x00, 0x00,
  0x00, 0x00, 0x00, 0x00, 0x00, 0x00, 0x00, 0x00, 0x00, 0x00, 0x00, 0x00,
  0x00, 0x00, 0x00, 0x00, 0x00, 0x00, 0x00, 0x00, 0x00, 0x00, 0x00, 0x00,
  0x00, 0x00, 0x00, 0x00, 0x00, 0x00, 0x00, 0x00, 0x00, 0x00, 0x00, 0x00,
  0x00, 0x00, 0x00, 0x00, 0x00, 0x00, 0x00, 0x00, 0x00, 0x00, 0x00, 0x00,
  0x00, 0x00, 0x00, 0x00, 0x00, 0x00, 0x00, 0x00, 0x00, 0x00, 0x00, 0x00,
  0x00, 0x00, 0x00, 0x00, 0x00, 0x00, 0x00, 0x00, 0x00, 0x00, 0x00, 0x00,
  0x00, 0x00, 0x00, 0x00, 0x00, 0x00, 0x00, 0x00, 0x00, 0x00, 0x00, 0x00,
  0x00, 0x00, 0x00, 0x00, 0x00, 0x00, 0x00, 0x00, 0x00, 0x00, 0x00, 0x00,
  0x00, 0x00, 0x00, 0x00, 0x00, 0x00, 0x00, 0x00, 0x00, 0x00, 0x00, 0x00,
  0x00, 0x00, 0x00, 0x00, 0x00, 0x00, 0x00, 0x00, 0x00, 0x00, 0x00, 0x00,
  0x00, 0x00, 0x00, 0x00, 0x00, 0x00, 0x00, 0x00, 0x00, 0x00, 0x00, 0x00,
  0x00, 0x00, 0x00, 0x00, 0x00, 0x00, 0x00, 0x00, 0x00, 0x00, 0x00, 0x00,
  0x00, 0x00, 0x00, 0x00, 0x00, 0x00, 0x00, 0x00, 0x00, 0x00, 0x00, 0x00,
  0x00, 0x00, 0x00, 0x00, 0x00, 0x00, 0x00, 0x00, 0x00, 0x00, 0x00, 0x00,
  0x00, 0x00, 0x00, 0x00, 0x00, 0x00, 0x00, 0x00, 0x00, 0x00, 0x00, 0x00,
  0x00, 0x00, 0x00, 0x00, 0x00, 0x00, 0x00, 0x00, 0x00, 0x00, 0x00, 0x00,
  0x00, 0x00, 0x00, 0x00, 0x00, 0x00, 0x00, 0x00, 0x00, 0x00, 0x00, 0x00,
  0x00, 0x00, 0x00, 0x00, 0x00, 0x00, 0x00, 0x00, 0x00, 0x00, 0x00, 0x00,
  0x00, 0x00, 0x00, 0x00, 0x00, 0x00, 0x00, 0x00, 0x00, 0x00, 0x00, 0x00,
  0x00, 0x00, 0x00, 0x00, 0x00, 0x00, 0x00, 0x00, 0x00, 0x00, 0x00, 0x00,
  0x00, 0x00, 0x00, 0x00, 0x00, 0x00, 0x00, 0x00, 0x00, 0x00, 0x00, 0x00,
  0x00, 0x00, 0x00, 0x00, 0x00, 0x00, 0x00, 0x00, 0x00, 0x00, 0x00, 0x00,
  0x00, 0x00, 0x00, 0x00, 0x00, 0x00, 0x00, 0x00, 0x00, 0x00, 0x00, 0x00,
  0x00, 0x00, 0x00, 0x00, 0x00, 0x00, 0x00, 0x00, 0x00, 0x00, 0x00, 0x00,
  0x00, 0x00, 0x00, 0x00, 0x00, 0x00, 0x00, 0x00, 0x00, 0x00, 0x00, 0x00,
  0x00, 0x00, 0x00, 0x00, 0x00, 0x00, 0x00, 0x00, 0x00, 0x00, 0x00, 0x00,
  0x00, 0x00, 0x00, 0x00, 0x00, 0x00, 0x00, 0x00, 0x00, 0x00, 0x00, 0x00,
  0x00, 0x00, 0x00, 0x00, 0x00, 0x00, 0x00, 0x00, 0x00, 0x00, 0x00, 0x00,
  0x00, 0x00, 0x00, 0x00, 0x00, 0x00, 0x00, 0x00, 0x00, 0x00, 0x00, 0x00,
  0x00, 0x00, 0x00, 0x00, 0x00, 0x00, 0x00, 0x00, 0x00, 0x00, 0x00, 0x00,
  0x40, 0x00, 0x00, 0x00, 0x07, 0x46, 0x7e, 0x3b, 0x77, 0x16, 0x8d, 0x3b,
  0xf5, 0x22, 0x95, 0x3b, 0x3b, 0xd0, 0x7c, 0x3b, 0xae, 0x52, 0x4b, 0x3b,
  0x51, 0x26, 0xd4, 0x3b, 0x8c, 0xf6, 0x59, 0x3b, 0x3c, 0x39, 0x9b, 0x3b,
  0xd1, 0x88, 0x6a, 0x3b, 0xe7, 0x4c, 0x13, 0x3b, 0xf0, 0xd8, 0x4f, 0x3b,
  0xfb, 0x75, 0xa8, 0x3b, 0x50, 0x32, 0xf5, 0x3a, 0x6e, 0xed, 0xc5, 0x3b,
  0x01, 0xf8, 0x7f, 0x3b, 0x36, 0xa2, 0x2c, 0x3b, 0x9d, 0x58, 0x6e, 0x3b,
  0x8a, 0xed, 0x4a, 0x3b, 0xfe, 0xa4, 0x42, 0x3b, 0xa1, 0xd3, 0xa0, 0x3b,
  0xc2, 0xc0, 0x75, 0x3b, 0x41, 0x42, 0xa5, 0x3b, 0x62, 0x0b, 0x66, 0x3b,
  0x55, 0x0d, 0x9a, 0x3b, 0x92, 0xf3, 0x3d, 0x3b, 0x96, 0xa9, 0x84, 0x3b,
  0x7c, 0xe9, 0x5e, 0x3b, 0x11, 0x36, 0x3e, 0x3b, 0x4d, 0xa1, 0x85, 0x3b,
  0x07, 0xf6, 0xa1, 0x3b, 0x80, 0x29, 0x8a, 0x3b, 0xab, 0x36, 0x44, 0x3b,
  0xfa, 0xc5, 0x55, 0x3b, 0xf7, 0xc9, 0x3c, 0x3b, 0xa8, 0xe0, 0x8f, 0x3b,
  0xa6, 0x69, 0x77, 0x3b, 0x35, 0xc5, 0x68, 0x3b, 0x3d, 0xda, 0x28, 0x3b,
  0x2e, 0x43, 0x8c, 0x3b, 0xf9, 0xd2, 0x8d, 0x3b, 0x2b, 0x53, 0x71, 0x3b,
  0x49, 0xae, 0x6d, 0x3b, 0x4d, 0x47, 0x98, 0x3b, 0xec, 0x0d, 0xb7, 0x3b,
  0x03, 0xe3, 0x7b, 0x3b, 0xcb, 0x5a, 0x7e, 0x3b, 0x18, 0x17, 0x0a, 0x3b,
  0xe1, 0x84, 0x74, 0x3b, 0x09, 0x0d, 0x61, 0x3b, 0xaa, 0x99, 0x63, 0x3b,
  0x84, 0x65, 0x6b, 0x3b, 0x74, 0x36, 0xa8, 0x3b, 0x55, 0xaa, 0x33, 0x3b,
  0xfa, 0x56, 0x59, 0x3b, 0x97, 0x57, 0x5b, 0x3b, 0x17, 0xb5, 0x35, 0x3b,
  0xad, 0xad, 0x8c, 0x3b, 0x4a, 0xc9, 0x4f, 0x3b, 0x98, 0x21, 0x5c, 0x3b,
  0xc9, 0xd2, 0x46, 0x3b, 0xc9, 0xf5, 0x4b, 0x3b, 0xed, 0xb3, 0x5a, 0x3b,
  0xdb, 0x64, 0x7d, 0x3b, 0xc9, 0xef, 0x07, 0x3c, 0x12, 0x00, 0x00, 0x00,
  0x74, 0x66, 0x6c, 0x2e, 0x70, 0x73, 0x65, 0x75, 0x64, 0x6f, 0x5f, 0x71,
  0x63, 0x6f, 0x6e, 0x73, 0x74, 0x35, 0x00, 0x00, 0x02, 0x00, 0x00, 0x00,
  0x40, 0x00, 0x00, 0x00, 0x10, 0x00, 0x00, 0x00, 0xa6, 0xf8, 0xff, 0xff,
  0x00, 0x00, 0x00, 0x01, 0x14, 0x00, 0x00, 0x00, 0x24, 0x03, 0x00, 0x00,
  0x06, 0x00, 0x00, 0x00, 0x00, 0x00, 0x00, 0x02, 0x30, 0x03, 0x00, 0x00,
  0x0c, 0xf8, 0xff, 0xff, 0x08, 0x00, 0x00, 0x00, 0x08, 0x02, 0x00, 0x00,
  0x40, 0x00, 0x00, 0x00, 0x00, 0x00, 0x00, 0x00, 0x00, 0x00, 0x00, 0x00,
  0x00, 0x00, 0x00, 0x00, 0x00, 0x00, 0x00, 0x00, 0x00, 0x00, 0x00, 0x00,
  0x00, 0x00, 0x00, 0x00, 0x00, 0x00, 0x00, 0x00, 0x00, 0x00, 0x00, 0x00,
  0x00, 0x00, 0x00, 0x00, 0x00, 0x00, 0x00, 0x00, 0x00, 0x00, 0x00, 0x00,
  0x00, 0x00, 0x00, 0x00, 0x00, 0x00, 0x00, 0x00, 0x00, 0x00, 0x00, 0x00,
  0x00, 0x00, 0x00, 0x00, 0x00, 0x00, 0x00, 0x00, 0x00, 0x00, 0x00, 0x00,
  0x00, 0x00, 0x00, 0x00, 0x00, 0x00, 0x00, 0x00, 0x00, 0x00, 0x00, 0x00,
  0x00, 0x00, 0x00, 0x00, 0x00, 0x00, 0x00, 0x00, 0x00, 0x00, 0x00, 0x00,
  0x00, 0x00, 0x00, 0x00, 0x00, 0x00, 0x00, 0x00, 0x00, 0x00, 0x00, 0x00,
  0x00, 0x00, 0x00, 0x00, 0x00, 0x00, 0x00, 0x00, 0x00, 0x00, 0x00, 0x00,
  0x00, 0x00, 0x00, 0x00, 0x00, 0x00, 0x00, 0x00, 0x00, 0x00, 0x00, 0x00,
  0x00, 0x00, 0x00, 0x00, 0x00, 0x00, 0x00, 0x00, 0x00, 0x00, 0x00, 0x00,
  0x00, 0x00, 0x00, 0x00, 0x00, 0x00, 0x00, 0x00, 0x00, 0x00, 0x00, 0x00,
  0x00, 0x00, 0x00, 0x00, 0x00, 0x00, 0x00, 0x00, 0x00, 0x00, 0x00, 0x00,
  0x00, 0x00, 0x00, 0x00, 0x00, 0x00, 0x00, 0x00, 0x00, 0x00, 0x00, 0x00,
  0x00, 0x00, 0x00, 0x00, 0x00, 0x00, 0x00, 0x00, 0x00, 0x00, 0x00, 0x00,
  0x00, 0x00, 0x00, 0x00, 0x00, 0x00, 0x00, 0x00, 0x00, 0x00, 0x00, 0x00,
  0x00, 0x00, 0x00, 0x00, 0x00, 0x00, 0x00, 0x00, 0x00, 0x00, 0x00, 0x00,
  0x00, 0x00, 0x00, 0x00, 0x00, 0x00, 0x00, 0x00, 0x00, 0x00, 0x00, 0x00,
  0x00, 0x00, 0x00, 0x00, 0x00, 0x00, 0x00, 0x00, 0x00, 0x00, 0x00, 0x00,
  0x00, 0x00, 0x00, 0x00, 0x00, 0x00, 0x00, 0x00, 0x00, 0x00, 0x00, 0x00,
  0x00, 0x00, 0x00, 0x00, 0x00, 0x00, 0x00, 0x00, 0x00, 0x00, 0x00, 0x00,
  0x00, 0x00, 0x00, 0x00, 0x00, 0x00, 0x00, 0x00, 0x00, 0x00, 0x00, 0x00,
  0x00, 0x00, 0x00, 0x00, 0x00, 0x00, 0x00, 0x00, 0x00, 0x00, 0x00, 0x00,
  0x00, 0x00, 0x00, 0x00, 0x00, 0x00, 0x00, 0x00, 0x00, 0x00, 0x00, 0x00,
  0x00, 0x00, 0x00, 0x00, 0x00, 0x00, 0x00, 0x00, 0x00, 0x00, 0x00, 0x00,
  0x00, 0x00, 0x00, 0x00, 0x00, 0x00, 0x00, 0x00, 0x00, 0x00, 0x00, 0x00,
  0x00, 0x00, 0x00, 0x00, 0x00, 0x00, 0x00, 0x00, 0x00, 0x00, 0x00, 0x00,
  0x00, 0x00, 0x00, 0x00, 0x00, 0x00, 0x00, 0x00, 0x00, 0x00, 0x00, 0x00,
  0x00, 0x00, 0x00, 0x00, 0x00, 0x00, 0x00, 0x00, 0x00, 0x00, 0x00, 0x00,
  0x00, 0x00, 0x00, 0x00, 0x00, 0x00, 0x00, 0x00, 0x00, 0x00, 0x00, 0x00,
  0x00, 0x00, 0x00, 0x00, 0x00, 0x00, 0x00, 0x00, 0x00, 0x00, 0x00, 0x00,
  0x00, 0x00, 0x00, 0x00, 0x00, 0x00, 0x00, 0x00, 0x00, 0x00, 0x00, 0x00,
  0x00, 0x00, 0x00, 0x00, 0x00, 0x00, 0x00, 0x00, 0x00, 0x00, 0x00, 0x00,
  0x00, 0x00, 0x00, 0x00, 0x00, 0x00, 0x00, 0x00, 0x00, 0x00, 0x00, 0x00,
  0x00, 0x00, 0x00, 0x00, 0x00, 0x00, 0x00, 0x00, 0x00, 0x00, 0x00, 0x00,
  0x00, 0x00, 0x00, 0x00, 0x00, 0x00, 0x00, 0x00, 0x00, 0x00, 0x00, 0x00,
  0x00, 0x00, 0x00, 0x00, 0x00, 0x00, 0x00, 0x00, 0x00, 0x00, 0x00, 0x00,
  0x00, 0x00, 0x00, 0x00, 0x00, 0x00, 0x00, 0x00, 0x00, 0x00, 0x00, 0x00,
  0x00, 0x00, 0x00, 0x00, 0x00, 0x00, 0x00, 0x00, 0x00, 0x00, 0x00, 0x00,
  0x00, 0x00, 0x00, 0x00, 0x00, 0x00, 0x00, 0x00, 0x00, 0x00, 0x00, 0x00,
  0x00, 0x00, 0x00, 0x00, 0x00, 0x00, 0x00, 0x00, 0x00, 0x00, 0x00, 0x00,
  0x00, 0x00, 0x00, 0x00, 0x00, 0x00, 0x00, 0x00, 0x00, 0x00, 0x00, 0x00,
  0x40, 0x00, 0x00, 0x00, 0x6e, 0x26, 0x49, 0x39, 0x05, 0x39, 0x5f, 0x39,
  0x09, 0xf5, 0x6b, 0x39, 0xba, 0xfe, 0x47, 0x39, 0x21, 0xd8, 0x20, 0x39,
  0xad, 0xd3, 0xa7, 0x39, 0xfb, 0x6c, 0x2c, 0x39, 0x79, 0x96, 0x75, 0x39,
  0xf2, 0x88, 0x39, 0x39, 0x56, 0x0d, 0xe9, 0x38, 0x66, 0x6c, 0x24, 0x39,
  0xff, 0x43, 0x85, 0x39, 0x30, 0xf8, 0xc1, 0x38, 0x74, 0x93, 0x9c, 0x39,
  0xbd, 0x7d, 0x4a, 0x39, 0x0d, 0x91, 0x08, 0x39, 0xe0, 0x8c, 0x3c, 0x39,
  0x1e, 0x88, 0x20, 0x39, 0x9a, 0xfa, 0x19, 0x39, 0xe8, 0x73, 0x7e, 0x39,
  0xe0, 0x68, 0x42, 0x39, 0x88, 0xbb, 0x82, 0x39, 0xa8, 0xfb, 0x35, 0x39,
  0xfb, 0xbb, 0x73, 0x39, 0x2f, 0x44, 0x16, 0x39, 0x80, 0xe4, 0x51, 0x39,
  0x3a, 0x57, 0x30, 0x39, 0xc9, 0x78, 0x16, 0x39, 0x6d, 0x6c, 0x53, 0x39,
  0xaf, 0x1f, 0x80, 0x39, 0x0a, 0x98, 0x5a, 0x39, 0x5b, 0x38, 0x1b, 0x39,
  0x7f, 0x1c, 0x29, 0x39, 0xc1, 0x58, 0x15, 0x39, 0xfb, 0xa2, 0x63, 0x39,
  0xff, 0xb8, 0x43, 0x39, 0xb0, 0x23, 0x38, 0x39, 0x4f, 0x93, 0x05, 0x39,
  0xbb, 0xea, 0x5d, 0x39, 0x44, 0x63, 0x60, 0x39, 0x1e, 0xe8, 0x3e, 0x39,
  0x22, 0x06, 0x3c, 0x39, 0xa2, 0xed, 0x70, 0x39, 0x6b, 0xcf, 0x90, 0x39,
  0x11, 0x43, 0x47, 0x39, 0xdb, 0x36, 0x49, 0x39, 0xeb, 0x7a, 0xda, 0x38,
  0xfd, 0x6e, 0x41, 0x39, 0x62, 0x08, 0x32, 0x39, 0xaa, 0x0c, 0x34, 0x39,
  0x89, 0x37, 0x3a, 0x39, 0xbe, 0x11, 0x85, 0x39, 0x16, 0x21, 0x0e, 0x39,
  0xc0, 0xee, 0x2b, 0x39, 0x44, 0x84, 0x2d, 0x39, 0xa1, 0xbe, 0x0f, 0x39,
  0x3a, 0x93, 0x5e, 0x39, 0x05, 0x60, 0x24, 0x39, 0x11, 0x24, 0x2e, 0x39,
  0xe4, 0x48, 0x1d, 0x39, 0x28, 0x59, 0x21, 0x39, 0xcb, 0x02, 0x2d, 0x39,
  0x4d, 0x74, 0x48, 0x39, 0xa9, 0x12, 0xd7, 0x39, 0x12, 0x00, 0x00, 0x00,
  0x74, 0x66, 0x6c, 0x2e, 0x70, 0x73, 0x65, 0x75, 0x64, 0x6f, 0x5f, 0x71,
  0x63, 0x6f, 0x6e, 0x73, 0x74, 0x34, 0x00, 0x00, 0x01, 0x00, 0x00, 0x00,
  0x40, 0x00, 0x00, 0x00, 0xf6, 0xfb, 0xff, 0xff, 0x00, 0x00, 0x00, 0x01,
  0x14, 0x00, 0x00, 0x00, 0xa8, 0x01, 0x00, 0x00, 0x05, 0x00, 0x00, 0x00,
  0x00, 0x00, 0x00, 0x09, 0xb4, 0x01, 0x00, 0x00, 0x5c, 0xfb, 0xff, 0xff,
  0x08, 0x00, 0x00, 0x00, 0x0c, 0x01, 0x00, 0x00, 0x20, 0x00, 0x00, 0x00,
  0x00, 0x00, 0x00, 0x00, 0x00, 0x00, 0x00, 0x00, 0x00, 0x00, 0x00, 0x00,
  0x00, 0x00, 0x00, 0x00, 0x00, 0x00, 0x00, 0x00, 0x00, 0x00, 0x00, 0x00,
  0x00, 0x00, 0x00, 0x00, 0x00, 0x00, 0x00, 0x00, 0x00, 0x00, 0x00, 0x00,
  0x00, 0x00, 0x00, 0x00, 0x00, 0x00, 0x00, 0x00, 0x00, 0x00, 0x00, 0x00,
  0x00, 0x00, 0x00, 0x00, 0x00, 0x00, 0x00, 0x00, 0x00, 0x00, 0x00, 0x00,
  0x00, 0x00, 0x00, 0x00, 0x00, 0x00, 0x00, 0x00, 0x00, 0x00, 0x00, 0x00,
  0x00, 0x00, 0x00, 0x00, 0x00, 0x00, 0x00, 0x00, 0x00, 0x00, 0x00, 0x00,
  0x00, 0x00, 0x00, 0x00, 0x00, 0x00, 0x00, 0x00, 0x00, 0x00, 0x00, 0x00,
  0x00, 0x00, 0x00, 0x00, 0x00, 0x00, 0x00, 0x00, 0x00, 0x00, 0x00, 0x00,
  0x00, 0x00, 0x00, 0x00, 0x00, 0x00, 0x00, 0x00, 0x00, 0x00, 0x00, 0x00,
  0x00, 0x00, 0x00, 0x00, 0x00, 0x00, 0x00, 0x00, 0x00, 0x00, 0x00, 0x00,
  0x00, 0x00, 0x00, 0x00, 0x00, 0x00, 0x00, 0x00, 0x00, 0x00, 0x00, 0x00,
  0x00, 0x00, 0x00, 0x00, 0x00, 0x00, 0x00, 0x00, 0x00, 0x00, 0x00, 0x00,
  0x00, 0x00, 0x00, 0x00, 0x00, 0x00, 0x00, 0x00, 0x00, 0x00, 0x00, 0x00,
  0x00, 0x00, 0x00, 0x00, 0x00, 0x00, 0x00, 0x00, 0x00, 0x00, 0x00, 0x00,
  0x00, 0x00, 0x00, 0x00, 0x00, 0x00, 0x00, 0x00, 0x00, 0x00, 0x00, 0x00,
  0x00, 0x00, 0x00, 0x00, 0x00, 0x00, 0x00, 0x00, 0x00, 0x00, 0x00, 0x00,
  0x00, 0x00, 0x00, 0x00, 0x00, 0x00, 0x00, 0x00, 0x00, 0x00, 0x00, 0x00,
  0x00, 0x00, 0x00, 0x00, 0x00, 0x00, 0x00, 0x00, 0x00, 0x00, 0x00, 0x00,
  0x00, 0x00, 0x00, 0x00, 0x00, 0x00, 0x00, 0x00, 0x00, 0x00, 0x00, 0x00,
  0x00, 0x00, 0x00, 0x00, 0x00, 0x00, 0x00, 0x00, 0x00, 0x00, 0x00, 0x00,
  0x00, 0x00, 0x00, 0x00, 0x00, 0x00, 0x00, 0x00, 0x20, 0x00, 0x00, 0x00,
  0x62, 0x44, 0xa7, 0x3b, 0x11, 0x48, 0x28, 0x3b, 0x2b, 0xa2, 0xf8, 0x3b,
  0xe1, 0x21, 0xd0, 0x3b, 0x86, 0xc5, 0xa9, 0x3b, 0x47, 0xc0, 0x99, 0x3b,
  0xcb, 0x1a, 0x06, 0x3c, 0xfa, 0x91, 0x0a, 0x3c, 0xb2, 0xf6, 0xed, 0x3b,
  0xca, 0x9d, 0x85, 0x3b, 0x3b, 0x99, 0xca, 0x3b, 0x4e, 0x3f, 0x4c, 0x3b,
  0x35, 0x7d, 0x8c, 0x3b, 0x58, 0x99, 0x7d, 0x3b, 0x3c, 0xa0, 0x0b, 0x3c,
  0x8f, 0xaf, 0xba, 0x3b, 0xa1, 0x70, 0xfb, 0x3b, 0xba, 0x41, 0xcb, 0x3b,
  0xd8, 0x46, 0x51, 0x3c, 0x0f, 0xa6, 0x7a, 0x3b, 0xe5, 0xc8, 0xb3, 0x3b,
  0xf3, 0xc1, 0x95, 0x3b, 0xad, 0xc7, 0xe2, 0x3b, 0x20, 0xaf, 0x19, 0x3c,
  0x02, 0x63, 0x87, 0x3b, 0x00, 0x10, 0x48, 0x3b, 0x80, 0x1d, 0x05, 0x3c,
  0x21, 0x1c, 0x03, 0x3c, 0x7b, 0x05, 0xf9, 0x3b, 0xcf, 0xe3, 0x89, 0x3b,
  0x65, 0x49, 0x81, 0x3b, 0x96, 0xe5, 0x04, 0x3c, 0x12, 0x00, 0x00, 0x00,
  0x74, 0x66, 0x6c, 0x2e, 0x70, 0x73, 0x65, 0x75, 0x64, 0x6f, 0x5f, 0x71,
  0x63, 0x6f, 0x6e, 0x73, 0x74, 0x33, 0x00, 0x00, 0x02, 0x00, 0x00, 0x00,
  0x20, 0x00, 0x00, 0x00, 0x40, 0x00, 0x00, 0x00, 0xce, 0xfd, 0xff, 0xff,
  0x00, 0x00, 0x00, 0x01, 0x14, 0x00, 0x00, 0x00, 0xa4, 0x01, 0x00, 0x00,
  0x04, 0x00, 0x00, 0x00, 0x00, 0x00, 0x00, 0x02, 0xb0, 0x01, 0x00, 0x00,
  0x34, 0xfd, 0xff, 0xff, 0x08, 0x00, 0x00, 0x00, 0x08, 0x01, 0x00, 0x00,
  0x20, 0x00, 0x00, 0x00, 0x00, 0x00, 0x00, 0x00, 0x00, 0x00, 0x00, 0x00,
  0x00, 0x00, 0x00, 0x00, 0x00, 0x00, 0x00, 0x00, 0x00, 0x00, 0x00, 0x00,
  0x00, 0x00, 0x00, 0x00, 0x00, 0x00, 0x00, 0x00, 0x00, 0x00, 0x00, 0x00,
  0x00, 0x00, 0x00, 0x00, 0x00, 0x00, 0x00, 0x00, 0x00, 0x00, 0x00, 0x00,
  0x00, 0x00, 0x00, 0x00, 0x00, 0x00, 0x00, 0x00, 0x00, 0x00, 0x00, 0x00,
  0x00, 0x00, 0x00, 0x00, 0x00, 0x00, 0x00, 0x00, 0x00, 0x00, 0x00, 0x00,
  0x00, 0x00, 0x00, 0x00, 0x00, 0x00, 0x00, 0x00, 0x00, 0x00, 0x00, 0x00,
  0x00, 0x00, 0x00, 0x00, 0x00, 0x00, 0x00, 0x00, 0x00, 0x00, 0x00, 0x00,
  0x00, 0x00, 0x00, 0x00, 0x00, 0x00, 0x00, 0x00, 0x00, 0x00, 0x00, 0x00,
  0x00, 0x00, 0x00, 0x00, 0x00, 0x00, 0x00, 0x00, 0x00, 0x00, 0x00, 0x00,
  0x00, 0x00, 0x00, 0x00, 0x00, 0x00, 0x00, 0x00, 0x00, 0x00, 0x00, 0x00,
  0x00, 0x00, 0x00, 0x00, 0x00, 0x00, 0x00, 0x00, 0x00, 0x00, 0x00, 0x00,
  0x00, 0x00, 0x00, 0x00, 0x00, 0x00, 0x00, 0x00, 0x00, 0x00, 0x00, 0x00,
  0x00, 0x00, 0x00, 0x00, 0x00, 0x00, 0x00, 0x00, 0x00, 0x00, 0x00, 0x00,
  0x00, 0x00, 0x00, 0x00, 0x00, 0x00, 0x00, 0x00, 0x00, 0x00, 0x00, 0x00,
  0x00, 0x00, 0x00, 0x00, 0x00, 0x00, 0x00, 0x00, 0x00, 0x00, 0x00, 0x00,
  0x00, 0x00, 0x00, 0x00, 0x00, 0x00, 0x00, 0x00, 0x00, 0x00, 0x00, 0x00,
  0x00, 0x00, 0x00, 0x00, 0x00, 0x00, 0x00, 0x00, 0x00, 0x00, 0x00, 0x00,
  0x00, 0x00, 0x00, 0x00, 0x00, 0x00, 0x00, 0x00, 0x00, 0x00, 0x00, 0x00,
  0x00, 0x00, 0x00, 0x00, 0x00, 0x00, 0x00, 0x00, 0x00, 0x00, 0x00, 0x00,
  0x00, 0x00, 0x00, 0x00, 0x00, 0x00, 0x00, 0x00, 0x00, 0x00, 0x00, 0x00,
  0x00, 0x00, 0x00, 0x00, 0x00, 0x00, 0x00, 0x00, 0x20, 0x00, 0x00, 0x00,
  0xcb, 0x8a, 0xef, 0x38, 0xaf, 0xfe, 0x70, 0x38, 0x7f, 0x08, 0x32, 0x39,
  0x51, 0x08, 0x15, 0x39, 0xf7, 0x20, 0xf3, 0x38, 0x99, 0x2f, 0xdc, 0x38,
  0xe8, 0x0c, 0x40, 0x39, 0x0d, 0x72, 0x46, 0x39, 0xa2, 0x64, 0x2a, 0x39,
  0xe3, 0x59, 0xbf, 0x38, 0xee, 0x11, 0x11, 0x39, 0x28, 0x40, 0x92, 0x38,
  0x8a, 0x31, 0xc9, 0x38, 0xb8, 0x96, 0xb5, 0x38, 0x16, 0xf5, 0x47, 0x39,
  0xfe, 0xac, 0x05, 0x39, 0xf3, 0x0a, 0x34, 0x39, 0x95, 0x8a, 0x11, 0x39,
  0x18, 0xda, 0x95, 0x39, 0xe6, 0x79, 0xb3, 0x38, 0xfa, 0xbb, 0x00, 0x39,
  0x87, 0x77, 0xd6, 0x38, 0x94, 0x62, 0x22, 0x39, 0x09, 0x17, 0x5c, 0x39,
  0xf1, 0xe2, 0xc1, 0x38, 0x0d, 0x41, 0x8f, 0x38, 0x2b, 0xa2, 0x3e, 0x39,
  0xf9, 0xc2, 0x3b, 0x39, 0x9c, 0x4f, 0x32, 0x39, 0xa0, 0x78, 0xc5, 0x38,
  0x90, 0x26, 0xb9, 0x38, 0x18, 0x52, 0x3e, 0x39, 0x12, 0x00, 0x00, 0x00,
  0x74, 0x66, 0x6c, 0x2e, 0x70, 0x73, 0x65, 0x75, 0x64, 0x6f, 0x5f, 0x71,
  0x63, 0x6f, 0x6e, 0x73, 0x74, 0x32, 0x00, 0x00, 0x01, 0x00, 0x00, 0x00,
  0x20, 0x00, 0x00, 0x00, 0x9e, 0xff, 0xff, 0xff, 0x00, 0x00, 0x00, 0x01,
  0x14, 0x00, 0x00, 0x00, 0x30, 0x00, 0x00, 0x00, 0x03, 0x00, 0x00, 0x00,
  0x00, 0x00, 0x00, 0x09, 0x3c, 0x00, 0x00, 0x00, 0x04, 0xff, 0xff, 0xff,
  0x08, 0x00, 0x00, 0x00, 0x10, 0x00, 0x00, 0x00, 0x01, 0x00, 0x00, 0x00,
  0x00, 0x00, 0x00, 0x00, 0x00, 0x00, 0x00, 0x00, 0x01, 0x00, 0x00, 0x00,
  0xda, 0x5b, 0x23, 0x3c, 0x12, 0x00, 0x00, 0x00, 0x74, 0x66, 0x6c, 0x2e,
  0x70, 0x73, 0x65, 0x75, 0x64, 0x6f, 0x5f, 0x71, 0x63, 0x6f, 0x6e, 0x73,
  0x74, 0x31, 0x00, 0x00, 0x02, 0x00, 0x00, 0x00, 0x01, 0x00, 0x00, 0x00,
  0x20, 0x00, 0x00, 0x00, 0x00, 0x00, 0x16, 0x00, 0x1c, 0x00, 0x18, 0x00,
  0x17, 0x00, 0x10, 0x00, 0x0c, 0x00, 0x08, 0x00, 0x00, 0x00, 0x00, 0x00,
  0x00, 0x00, 0x07, 0x00, 0x16, 0x00, 0x00, 0x00, 0x00, 0x00, 0x00, 0x01,
  0x14, 0x00, 0x00, 0x00, 0x30, 0x00, 0x00, 0x00, 0x02, 0x00, 0x00, 0x00,
  0x00, 0x00, 0x00, 0x02, 0x3c, 0x00, 0x00, 0x00, 0x7c, 0xff, 0xff, 0xff,
  0x08, 0x00, 0x00, 0x00, 0x10, 0x00, 0x00, 0x00, 0x01, 0x00, 0x00, 0x00,
  0x00, 0x00, 0x00, 0x00, 0x00, 0x00, 0x00, 0x00, 0x01, 0x00, 0x00, 0x00,
  0x8b, 0xcc, 0x4a, 0x39, 0x11, 0x00, 0x00, 0x00, 0x74, 0x66, 0x6c, 0x2e,
  0x70, 0x73, 0x65, 0x75, 0x64, 0x6f, 0x5f, 0x71, 0x63, 0x6f, 0x6e, 0x73,
  0x74, 0x00, 0x00, 0x00, 0x01, 0x00, 0x00, 0x00, 0x01, 0x00, 0x00, 0x00,
  0x00, 0x00, 0x16, 0x00, 0x20, 0x00, 0x1c, 0x00, 0x1b, 0x00, 0x14, 0x00,
  0x10, 0x00, 0x0c, 0x00, 0x00, 0x00, 0x00, 0x00, 0x08, 0x00, 0x07, 0x00,
  0x16, 0x00, 0x00, 0x00, 0x00, 0x00, 0x00, 0x01, 0x18, 0x00, 0x00, 0x00,
  0x2c, 0x00, 0x00, 0x00, 0x4c, 0x00, 0x00, 0x00, 0x01, 0x00, 0x00, 0x00,
  0x00, 0x00, 0x00, 0x09, 0x64, 0x00, 0x00, 0x00, 0x02, 0x00, 0x00, 0x00,
  0xff, 0xff, 0xff, 0xff, 0x10, 0x00, 0x00, 0x00, 0x0c, 0x00, 0x0c, 0x00,
  0x00, 0x00, 0x00, 0x00, 0x08, 0x00, 0x04, 0x00, 0x0c, 0x00, 0x00, 0x00,
  0x08, 0x00, 0x00, 0x00, 0x14, 0x00, 0x00, 0x00, 0x01, 0x00, 0x00, 0x00,
  0xd8, 0xff, 0xff, 0xff, 0xff, 0xff, 0xff, 0xff, 0x00, 0x00, 0x00, 0x00,
  0x01, 0x00, 0x00, 0x00, 0x10, 0x84, 0x4a, 0x3d, 0x1e, 0x00, 0x00, 0x00,
  0x73, 0x65, 0x72, 0x76, 0x69, 0x6e, 0x67, 0x5f, 0x64, 0x65, 0x66, 0x61,
  0x75, 0x6c, 0x74, 0x5f, 0x70, 0x70, 0x67, 0x5f, 0x66, 0x65, 0x61, 0x74,
  0x75, 0x72, 0x65, 0x73, 0x3a, 0x30, 0x00, 0x00, 0x02, 0x00, 0x00, 0x00,
  0x01, 0x00, 0x00, 0x00, 0x10, 0x00, 0x00, 0x00, 0x01, 0x00, 0x00, 0x00,
  0x10, 0x00, 0x00, 0x00, 0x0c, 0x00, 0x10, 0x00, 0x0f, 0x00, 0x00, 0x00,
  0x08, 0x00, 0x04, 0x00, 0x0c, 0x00, 0x00, 0x00, 0x09, 0x00, 0x00, 0x00,
  0x04, 0x00, 0x00, 0x00, 0x00, 0x00, 0x00, 0x09
};
unsigned int ppg_hr_mlp_int8_tflite_len = 7976;
